{
  "version": "1.0",
  "truncation": null,
  "padding": null,
  "added_tokens": [
    {
      "id": 0,
      "content": "[PAD]",
      "single_word": false,
      "lstrip": false,
      "rstrip": false,
      "normalized": false,
      "special": true
    },
    {
      "id": 1,
      "content": "[UNK]",
      "single_word": false,
      "lstrip": false,
      "rstrip": false,
      "normalized": false,
      "special": true
    },
    {
      "id": 2,
      "content": "[CLS]",
      "single_word": false,
      "lstrip": false,
      "rstrip": false,
      "normalized": false,
      "special": true
    },
    {
      "id": 3,
      "content": "[SEP]",
      "single_word": false,
      "lstrip": false,
      "rstrip": false,
      "normalized": false,
      "special": true
    },
    {
      "id": 4,
      "content": "[MASK]",
      "single_word": false,
      "lstrip": false,
      "rstrip": false,
      "normalized": false,
      "special": true
    }
  ],
  "normalizer": {
    "type": "BertNormalizer",
    "clean_text": true,
    "handle_chinese_chars": true,
    "strip_accents": true,
    "lowercase": true
  },
  "pre_tokenizer": {
    "type": "BertPreTokenizer"
  },
  "post_processor": {
    "type": "TemplateProcessing",
    "single": [
      {
        "SpecialToken": {
          "id": "[CLS]",
          "type_id": 0
        }
      },
      {
        "Sequence": {
          "id": "A",
          "type_id": 0
        }
      },
      {
        "SpecialToken": {
          "id": "[SEP]",
          "type_id": 0
        }
      }
    ],
    "pair": [
      {
        "Sequence": {
          "id": "A",
          "type_id": 0
        }
      },
      {
        "Sequence": {
          "id": "B",
          "type_id": 1
        }
      }
    ],
    "special_tokens": {
      "[CLS]": {
        "id": "[CLS]",
        "ids": [
          2
        ],
        "tokens": [
          "[CLS]"
        ]
      },
      "[SEP]": {
        "id": "[SEP]",
        "ids": [
          3
        ],
        "tokens": [
          "[SEP]"
        ]
      }
    }
  },
  "decoder": {
    "type": "WordPiece",
    "prefix": "##",
    "cleanup": true
  },
  "model": {
    "type": "WordPiece",
    "unk_token": "[UNK]",
    "continuing_subword_prefix": "##",
    "max_input_chars_per_word": 100,
    "vocab": {
      "[PAD]": 0,
      "[UNK]": 1,
      "[CLS]": 2,
      "[SEP]": 3,
      "[MASK]": 4,
      "!": 5,
      "\"": 6,
      "#": 7,
      "$": 8,
      "%": 9,
      "&": 10,
      "'": 11,
      "(": 12,
      ")": 13,
      "*": 14,
      "+": 15,
      ",": 16,
      "-": 17,
      ".": 18,
      "/": 19,
      "0": 20,
      "1": 21,
      "2": 22,
      "3": 23,
      "4": 24,
      "5": 25,
      "6": 26,
      "7": 27,
      "8": 28,
      "9": 29,
      ":": 30,
      ";": 31,
      "<": 32,
      "=": 33,
      ">": 34,
      "?": 35,
      "@": 36,
      "[": 37,
      "\\": 38,
      "]": 39,
      "^": 40,
      "_": 41,
      "`": 42,
      "a": 43,
      "b": 44,
      "c": 45,
      "d": 46,
      "e": 47,
      "f": 48,
      "g": 49,
      "h": 50,
      "i": 51,
      "j": 52,
      "k": 53,
      "l": 54,
      "m": 55,
      "n": 56,
      "o": 57,
      "p": 58,
      "q": 59,
      "r": 60,
      "s": 61,
      "t": 62,
      "u": 63,
      "v": 64,
      "w": 65,
      "x": 66,
      "y": 67,
      "z": 68,
      "{": 69,
      "|": 70,
      "}": 71,
      "~": 72,
      "¡": 73,
      "¢": 74,
      "£": 75,
      "¤": 76,
      "¦": 77,
      "§": 78,
      "¨": 79,
      "©": 80,
      "ª": 81,
      "«": 82,
      "®": 83,
      "°": 84,
      "³": 85,
      "´": 86,
      "·": 87,
      "º": 88,
      "»": 89,
      "½": 90,
      "¾": 91,
      "¿": 92,
      "ß": 93,
      "æ": 94,
      "ð": 95,
      "ø": 96,
      "þ": 97,
      "ı": 98,
      "א": 99,
      "ג": 100,
      "ו": 101,
      "י": 102,
      "כ": 103,
      "ל": 104,
      "מ": 105,
      "ן": 106,
      "ר": 107,
      "–": 108,
      "‘": 109,
      "’": 110,
      "“": 111,
      "”": 112,
      "…": 113,
      "″": 114,
      "₤": 115,
      "▼": 116,
      "★": 117,
      "、": 118,
      "，": 119,
      "##e": 120,
      "##l": 121,
      "##i": 122,
      "##s": 123,
      "##h": 124,
      "##n": 125,
      "##g": 126,
      "##a": 127,
      "##u": 128,
      "##t": 129,
      "##o": 130,
      "##d": 131,
      "##w": 132,
      "##r": 133,
      "##k": 134,
      "##m": 135,
      "##p": 136,
      "##c": 137,
      "##v": 138,
      "##q": 139,
      "##b": 140,
      "##f": 141,
      "##z": 142,
      "##y": 143,
      "##x": 144,
      "##j": 145,
      "##1": 146,
      "##5": 147,
      "##9": 148,
      "##8": 149,
      "##0": 150,
      "##7": 151,
      "##4": 152,
      "##2": 153,
      "##´": 154,
      "##ø": 155,
      "##3": 156,
      "##6": 157,
      "##¨": 158,
      "##ı": 159,
      "##º": 160,
      "##°": 161,
      "##®": 162,
      "##ß": 163,
      "##ר": 164,
      "##מ": 165,
      "##ו": 166,
      "##ן": 167,
      "##ð": 168,
      "##©": 169,
      "##ª": 170,
      "##æ": 171,
      "##★": 172,
      "##¢": 173,
      "##ג": 174,
      "##א": 175,
      "##ל": 176,
      "##▼": 177,
      "##½": 178,
      "##³": 179,
      "##£": 180,
      "##¦": 181,
      "th": 182,
      "the": 183,
      "##er": 184,
      "##in": 185,
      "##nd": 186,
      "##at": 187,
      "##es": 188,
      "##or": 189,
      "##en": 190,
      "##ing": 191,
      "##ou": 192,
      "##is": 193,
      "##on": 194,
      "##ed": 195,
      "and": 196,
      "##ar": 197,
      "to": 198,
      "of": 199,
      "##ll": 200,
      "##an": 201,
      "##it": 202,
      "##re": 203,
      "in": 204,
      "##as": 205,
      "br": 206,
      "is": 207,
      "##om": 208,
      "it": 209,
      "##ic": 210,
      "##le": 211,
      "##ot": 212,
      "wh": 213,
      "##al": 214,
      "be": 215,
      "##ut": 216,
      "##ct": 217,
      "##il": 218,
      "##ie": 219,
      "##ly": 220,
      "##st": 221,
      "on": 222,
      "##ov": 223,
      "this": 224,
      "that": 225,
      "re": 226,
      "st": 227,
      "##ow": 228,
      "##ent": 229,
      "##ad": 230,
      "##ve": 231,
      "##ch": 232,
      "##ion": 233,
      "##et": 234,
      "##ay": 235,
      "##gh": 236,
      "##se": 237,
      "mov": 238,
      "for": 239,
      "was": 240,
      "as": 241,
      "an": 242,
      "##ith": 243,
      "##im": 244,
      "sh": 245,
      "##id": 246,
      "fil": 247,
      "film": 248,
      "se": 249,
      "##all": 250,
      "with": 251,
      "##oo": 252,
      "##ce": 253,
      "##ver": 254,
      "you": 255,
      "##am": 256,
      "##ld": 257,
      "##ir": 258,
      "he": 259,
      "movie": 260,
      "but": 261,
      "ch": 262,
      "ha": 263,
      "##ke": 264,
      "##ur": 265,
      "##ter": 266,
      "li": 267,
      "not": 268,
      "##ill": 269,
      "##her": 270,
      "##ally": 271,
      "##ers": 272,
      "fr": 273,
      "##ck": 274,
      "his": 275,
      "at": 276,
      "##ess": 277,
      "pr": 278,
      "su": 279,
      "are": 280,
      "##est": 281,
      "##ome": 282,
      "##pe": 283,
      "de": 284,
      "##ould": 285,
      "sc": 286,
      "##ul": 287,
      "al": 288,
      "so": 289,
      "have": 290,
      "##ri": 291,
      "we": 292,
      "##ght": 293,
      "do": 294,
      "one": 295,
      "##em": 296,
      "##ust": 297,
      "##ra": 298,
      "her": 299,
      "act": 300,
      "ma": 301,
      "##un": 302,
      "ex": 303,
      "all": 304,
      "who": 305,
      "pl": 306,
      "##ore": 307,
      "ab": 308,
      "com": 309,
      "##out": 310,
      "##op": 311,
      "##ood": 312,
      "##ab": 313,
      "##act": 314,
      "##ol": 315,
      "they": 316,
      "ne": 317,
      "by": 318,
      "##ant": 319,
      "##el": 320,
      "##art": 321,
      "##ain": 322,
      "##ies": 323,
      "##us": 324,
      "wor": 325,
      "##ge": 326,
      "like": 327,
      "or": 328,
      "##pp": 329,
      "some": 330,
      "from": 331,
      "con": 332,
      "##ous": 333,
      "out": 334,
      "##ere": 335,
      "en": 336,
      "##ist": 337,
      "##th": 338,
      "there": 339,
      "##os": 340,
      "##ast": 341,
      "di": 342,
      "##ost": 343,
      "##one": 344,
      "##ight": 345,
      "##ven": 346,
      "just": 347,
      "##od": 348,
      "##ation": 349,
      "me": 350,
      "un": 351,
      "##ough": 352,
      "##um": 353,
      "##au": 354,
      "le": 355,
      "char": 356,
      "##ate": 357,
      "##fe": 358,
      "about": 359,
      "if": 360,
      "has": 361,
      "##ich": 362,
      "can": 363,
      "tim": 364,
      "##and": 365,
      "##atch": 366,
      "##ery": 367,
      "what": 368,
      "man": 369,
      "##ard": 370,
      "##ind": 371,
      "##ory": 372,
      "##ack": 373,
      "##ive": 374,
      "ever": 375,
      "##pt": 376,
      "tr": 377,
      "my": 378,
      "##ort": 379,
      "any": 380,
      "good": 381,
      "up": 382,
      "##ud": 383,
      "##ook": 384,
      "##reat": 385,
      "she": 386,
      "charact": 387,
      "no": 388,
      "watch": 389,
      "when": 390,
      "more": 391,
      "see": 392,
      "get": 393,
      "##ak": 394,
      "int": 395,
      "##ong": 396,
      "fe": 397,
      "very": 398,
      "##ig": 399,
      "would": 400,
      "##ob": 401,
      "##ity": 402,
      "##ound": 403,
      "go": 404,
      "cl": 405,
      "am": 406,
      "how": 407,
      "even": 408,
      "bec": 409,
      "##ame": 410,
      "time": 411,
      "story": 412,
      "##ite": 413,
      "ar": 414,
      "##ff": 415,
      "##ther": 416,
      "##able": 417,
      "##oy": 418,
      "per": 419,
      "which": 420,
      "only": 421,
      "##ag": 422,
      "really": 423,
      "show": 424,
      "##og": 425,
      "scen": 426,
      "their": 427,
      "other": 428,
      "had": 429,
      "##hing": 430,
      "##ious": 431,
      "##ue": 432,
      "te": 433,
      "kn": 434,
      "well": 435,
      "him": 436,
      "were": 437,
      "than": 438,
      "##itt": 439,
      "pe": 440,
      "will": 441,
      "did": 442,
      "sp": 443,
      "##ink": 444,
      "##ick": 445,
      "##ap": 446,
      "im": 447,
      "##ure": 448,
      "them": 449,
      "##ine": 450,
      "end": 451,
      "mu": 452,
      "##ful": 453,
      "great": 454,
      "does": 455,
      "##ond": 456,
      "##our": 457,
      "over": 458,
      "lov": 459,
      "##ence": 460,
      "##ci": 461,
      "##ars": 462,
      "bad": 463,
      "##man": 464,
      "##ays": 465,
      "look": 466,
      "qu": 467,
      "bl": 468,
      "bet": 469,
      "##ade": 470,
      "##so": 471,
      "ad": 472,
      "cr": 473,
      "##ment": 474,
      "##rect": 475,
      "af": 476,
      "much": 477,
      "most": 478,
      "##ause": 479,
      "fa": 480,
      "##ish": 481,
      "every": 482,
      "tw": 483,
      "don": 484,
      "fir": 485,
      "thr": 486,
      "could": 487,
      "us": 488,
      "pre": 489,
      "dis": 490,
      "##ice": 491,
      "##pl": 492,
      "peop": 493,
      "been": 494,
      "people": 495,
      "direct": 496,
      "sa": 497,
      "know": 498,
      "also": 499,
      "into": 500,
      "po": 501,
      "##ves": 502,
      "##ide": 503,
      "first": 504,
      "too": 505,
      "because": 506,
      "##ple": 507,
      "##int": 508,
      "ag": 509,
      "##ose": 510,
      "think": 511,
      "off": 512,
      "##lf": 513,
      "##ble": 514,
      "##ass": 515,
      "##other": 516,
      "real": 517,
      "part": 518,
      "wr": 519,
      "##per": 520,
      "##age": 521,
      "gu": 522,
      "thing": 523,
      "##oll": 524,
      "make": 525,
      "way": 526,
      "car": 527,
      "made": 528,
      "its": 529,
      "then": 530,
      "after": 531,
      "##ors": 532,
      "fun": 533,
      "##for": 534,
      "fl": 535,
      "ye": 536,
      "mak": 537,
      "##ile": 538,
      "movies": 539,
      "##ict": 540,
      "##pr": 541,
      "##ty": 542,
      "##ull": 543,
      "##te": 544,
      "##ry": 545,
      "inter": 546,
      "##ces": 547,
      "##ian": 548,
      "seem": 549,
      "##qu": 550,
      "gr": 551,
      "##cc": 552,
      "character": 553,
      "play": 554,
      "work": 555,
      "ser": 556,
      "##ated": 557,
      "##ary": 558,
      "characters": 559,
      "##gin": 560,
      "##ving": 561,
      "##ical": 562,
      "ro": 563,
      "##own": 564,
      "##iew": 565,
      "##ep": 566,
      "aw": 567,
      "love": 568,
      "plot": 569,
      "dr": 570,
      "##ually": 571,
      "films": 572,
      "##ach": 573,
      "your": 574,
      "##fect": 575,
      "two": 576,
      "never": 577,
      "##pect": 578,
      "many": 579,
      "being": 580,
      "seen": 581,
      "##tain": 582,
      "where": 583,
      "##iz": 584,
      "want": 585,
      "hor": 586,
      "##self": 587,
      "##ny": 588,
      "som": 589,
      "life": 590,
      "##ber": 591,
      "##oc": 592,
      "acting": 593,
      "des": 594,
      "##nder": 595,
      "say": 596,
      "##ens": 597,
      "##ip": 598,
      "best": 599,
      "somet": 600,
      "##ance": 601,
      "jo": 602,
      "##ang": 603,
      "##ittle": 604,
      "back": 605,
      "little": 606,
      "through": 607,
      "##wn": 608,
      "##urn": 609,
      "##get": 610,
      "##ath": 611,
      "rem": 612,
      "may": 613,
      "##ans": 614,
      "##ark": 615,
      "##oss": 616,
      "rec": 617,
      "##ents": 618,
      "spe": 619,
      "19": 620,
      "##ake": 621,
      "ve": 622,
      "sl": 623,
      "##ne": 624,
      "##ace": 625,
      "better": 626,
      "##ild": 627,
      "##ather": 628,
      "##ult": 629,
      "##ily": 630,
      "here": 631,
      "##we": 632,
      "min": 633,
      "str": 634,
      "still": 635,
      "##ise": 636,
      "scene": 637,
      "##ions": 638,
      "##ire": 639,
      "ke": 640,
      "under": 641,
      "bel": 642,
      "##augh": 643,
      "##ual": 644,
      "find": 645,
      "should": 646,
      "perfor": 647,
      "these": 648,
      "again": 649,
      "##thing": 650,
      "kill": 651,
      "gi": 652,
      "##ph": 653,
      "##ought": 654,
      "why": 655,
      "##igh": 656,
      "scenes": 657,
      "now": 658,
      "##ase": 659,
      "att": 660,
      "prob": 661,
      "##ac": 662,
      "res": 663,
      "inc": 664,
      "feel": 665,
      "while": 666,
      "##iv": 667,
      "old": 668,
      "##iend": 669,
      "em": 670,
      "new": 671,
      "something": 672,
      "##ting": 673,
      "##ater": 674,
      "sim": 675,
      "tra": 676,
      "such": 677,
      "10": 678,
      "##odu": 679,
      "gen": 680,
      "##me": 681,
      "lot": 682,
      "hum": 683,
      "##ia": 684,
      "sur": 685,
      "##ree": 686,
      "interest": 687,
      "happ": 688,
      "##oth": 689,
      "##ning": 690,
      "mus": 691,
      "ap": 692,
      "cast": 693,
      "##ably": 694,
      "##ense": 695,
      "##ating": 696,
      "gir": 697,
      "##are": 698,
      "scre": 699,
      "##oun": 700,
      "those": 701,
      "##ever": 702,
      "fin": 703,
      "ev": 704,
      "cont": 705,
      "##fore": 706,
      "guy": 707,
      "##ations": 708,
      "##ason": 709,
      "##be": 710,
      "fam": 711,
      "##alk": 712,
      "watching": 713,
      "point": 714,
      "##if": 715,
      "performan": 716,
      "##arly": 717,
      "wom": 718,
      "es": 719,
      "director": 720,
      "##less": 721,
      "actors": 722,
      "##ror": 723,
      "down": 724,
      "##ying": 725,
      "doesn": 726,
      "dec": 727,
      "big": 728,
      "didn": 729,
      "ter": 730,
      "id": 731,
      "##ock": 732,
      "che": 733,
      "funny": 734,
      "years": 735,
      "##ect": 736,
      "though": 737,
      "set": 738,
      "##ng": 739,
      "ob": 740,
      "sm": 741,
      "before": 742,
      "comed": 743,
      "another": 744,
      "##joy": 745,
      "##li": 746,
      "view": 747,
      "enjoy": 748,
      "##vel": 749,
      "actually": 750,
      "tak": 751,
      "war": 752,
      "nothing": 753,
      "high": 754,
      "belie": 755,
      "young": 756,
      "##av": 757,
      "fact": 758,
      "produ": 759,
      "##az": 760,
      "start": 761,
      "long": 762,
      "makes": 763,
      "going": 764,
      "mis": 765,
      "exce": 766,
      "comp": 767,
      "##ial": 768,
      "##ute": 769,
      "##erson": 770,
      "sub": 771,
      "same": 772,
      "rel": 773,
      "few": 774,
      "tri": 775,
      "pret": 776,
      "##ft": 777,
      "ho": 778,
      "ind": 779,
      "ori": 780,
      "##ool": 781,
      "girl": 782,
      "##ience": 783,
      "turn": 784,
      "world": 785,
      "got": 786,
      "stu": 787,
      "mar": 788,
      "##ash": 789,
      "laugh": 790,
      "hard": 791,
      "app": 792,
      "supp": 793,
      "ed": 794,
      "thought": 795,
      "origin": 796,
      "ph": 797,
      "own": 798,
      "friend": 799,
      "diff": 800,
      "bit": 801,
      "far": 802,
      "##cial": 803,
      "bu": 804,
      "##les": 805,
      "sec": 806,
      "comple": 807,
      "inv": 808,
      "##eric": 809,
      "##ffect": 810,
      "screen": 811,
      "sin": 812,
      "##ript": 813,
      "##ible": 814,
      "things": 815,
      "el": 816,
      "wond": 817,
      "##aw": 818,
      "horror": 819,
      "##ave": 820,
      "kid": 821,
      "quite": 822,
      "pretty": 823,
      "effect": 824,
      "right": 825,
      "cam": 826,
      "##der": 827,
      "bor": 828,
      "##ction": 829,
      "##aut": 830,
      "around": 831,
      "ins": 832,
      "need": 833,
      "##ub": 834,
      "bas": 835,
      "##iting": 836,
      "seems": 837,
      "take": 838,
      "acc": 839,
      "person": 840,
      "wonder": 841,
      "however": 842,
      "enough": 843,
      "cra": 844,
      "##ved": 845,
      "##ings": 846,
      "hel": 847,
      "americ": 848,
      "##ons": 849,
      "music": 850,
      "##ced": 851,
      "both": 852,
      "inst": 853,
      "##ib": 854,
      "must": 855,
      "script": 856,
      "original": 857,
      "##ways": 858,
      "enter": 859,
      "op": 860,
      "give": 861,
      "##ention": 862,
      "kind": 863,
      "let": 864,
      "##ween": 865,
      "class": 866,
      "sex": 867,
      "mon": 868,
      "##ically": 869,
      "comedy": 870,
      "between": 871,
      "action": 872,
      "series": 873,
      "child": 874,
      "alm": 875,
      "##ness": 876,
      "mom": 877,
      "##ately": 878,
      "appe": 879,
      "come": 880,
      "beaut": 881,
      "##arr": 882,
      "cons": 883,
      "saw": 884,
      "without": 885,
      "##ug": 886,
      "put": 887,
      "##ell": 888,
      "tell": 889,
      "read": 890,
      "sound": 891,
      "##inem": 892,
      "times": 893,
      "isn": 894,
      "sch": 895,
      "interesting": 896,
      "##utes": 897,
      "always": 898,
      "cinem": 899,
      "hand": 900,
      "reason": 901,
      "role": 902,
      "##ead": 903,
      "co": 904,
      "almost": 905,
      "last": 906,
      "par": 907,
      "gets": 908,
      "ep": 909,
      "rev": 910,
      "##vious": 911,
      "whole": 912,
      "done": 913,
      "ll": 914,
      "lead": 915,
      "shot": 916,
      "cle": 917,
      "least": 918,
      "sure": 919,
      "worth": 920,
      "##icul": 921,
      "##ale": 922,
      "call": 923,
      "##its": 924,
      "might": 925,
      "aud": 926,
      "##ount": 927,
      "##ody": 928,
      "expect": 929,
      "art": 930,
      "##ner": 931,
      "##ward": 932,
      "ide": 933,
      "boy": 934,
      "differ": 935,
      "complete": 936,
      "main": 937,
      "family": 938,
      "book": 939,
      "expl": 940,
      "minutes": 941,
      "##oot": 942,
      "gra": 943,
      "##rible": 944,
      "##app": 945,
      "##over": 946,
      "##press": 947,
      "run": 948,
      "##ane": 949,
      "##ks": 950,
      "##ines": 951,
      "##ully": 952,
      "making": 953,
      "anything": 954,
      "##hn": 955,
      "gl": 956,
      "tv": 957,
      "since": 958,
      "##ouse": 959,
      "rob": 960,
      "cour": 961,
      "night": 962,
      "begin": 963,
      "##ently": 964,
      "##ress": 965,
      "care": 966,
      "probably": 967,
      "##uring": 968,
      "entertain": 969,
      "pol": 970,
      "performance": 971,
      "add": 972,
      "yet": 973,
      "help": 974,
      "ext": 975,
      "day": 976,
      "##son": 977,
      "##ord": 978,
      "away": 979,
      "ty": 980,
      "mean": 981,
      "##ail": 982,
      "mat": 983,
      "comm": 984,
      "##stand": 985,
      "##alog": 986,
      "woman": 987,
      "imp": 988,
      "john": 989,
      "##cially": 990,
      "##xt": 991,
      "found": 992,
      "##lem": 993,
      "anyone": 994,
      "our": 995,
      "worst": 996,
      "super": 997,
      "poor": 998,
      "ste": 999,
      "bo": 1000,
      "sequ": 1001,
      "rather": 1002,
      "abs": 1003,
      "##ism": 1004,
      "bud": 1005,
      "##ogra": 1006,
      "miss": 1007,
      "##ert": 1008,
      "dialog": 1009,
      "##oney": 1010,
      "##red": 1011,
      "ent": 1012,
      "##mend": 1013,
      "mind": 1014,
      "each": 1015,
      "ac": 1016,
      "cre": 1017,
      "hal": 1018,
      "##istic": 1019,
      "dv": 1020,
      "played": 1021,
      "##ures": 1022,
      "##ative": 1023,
      "pres": 1024,
      "##ign": 1025,
      "##ition": 1026,
      "##aster": 1027,
      "def": 1028,
      "dvd": 1029,
      "##ange": 1030,
      "pro": 1031,
      "##als": 1032,
      "keep": 1033,
      "##apt": 1034,
      "looking": 1035,
      "##ject": 1036,
      "mur": 1037,
      "alth": 1038,
      "espe": 1039,
      "epis": 1040,
      "although": 1041,
      "episod": 1042,
      "believe": 1043,
      "especially": 1044,
      "vers": 1045,
      "happen": 1046,
      "##ling": 1047,
      "star": 1048,
      "lik": 1049,
      "chr": 1050,
      "##ten": 1051,
      "having": 1052,
      "black": 1053,
      "surpr": 1054,
      "##ember": 1055,
      "trying": 1056,
      "##osed": 1057,
      "second": 1058,
      "##led": 1059,
      "course": 1060,
      "less": 1061,
      "##wood": 1062,
      "unf": 1063,
      "job": 1064,
      "port": 1065,
      "sk": 1066,
      "conf": 1067,
      "everything": 1068,
      "perfect": 1069,
      "##ollow": 1070,
      "short": 1071,
      "ey": 1072,
      "cer": 1073,
      "##00": 1074,
      "place": 1075,
      "sense": 1076,
      "head": 1077,
      "##ither": 1078,
      "goes": 1079,
      "ending": 1080,
      "comes": 1081,
      "maybe": 1082,
      "##ingly": 1083,
      "rest": 1084,
      "##ah": 1085,
      "##ady": 1086,
      "stand": 1087,
      "dram": 1088,
      "three": 1089,
      "shows": 1090,
      "different": 1091,
      "creat": 1092,
      "fan": 1093,
      "##umb": 1094,
      "recom": 1095,
      "##olly": 1096,
      "half": 1097,
      "recommend": 1098,
      "##ank": 1099,
      "##ograph": 1100,
      "american": 1101,
      "prov": 1102,
      "actor": 1103,
      "problem": 1104,
      "men": 1105,
      "year": 1106,
      "##hip": 1107,
      "once": 1108,
      "##ates": 1109,
      "cou": 1110,
      "someone": 1111,
      "certain": 1112,
      "##ife": 1113,
      "##here": 1114,
      "nor": 1115,
      "##ues": 1116,
      "##iter": 1117,
      "follow": 1118,
      "talk": 1119,
      "money": 1120,
      "house": 1121,
      "##iece": 1122,
      "##empt": 1123,
      "low": 1124,
      "true": 1125,
      "sy": 1126,
      "dra": 1127,
      "effects": 1128,
      "imag": 1129,
      "looks": 1130,
      "##ics": 1131,
      "wasn": 1132,
      "##oint": 1133,
      "watched": 1134,
      "death": 1135,
      "##lud": 1136,
      "vis": 1137,
      "special": 1138,
      "everyone": 1139,
      "##iful": 1140,
      "##ilar": 1141,
      "##gether": 1142,
      "together": 1143,
      "nice": 1144,
      "top": 1145,
      "sit": 1146,
      "eng": 1147,
      "exper": 1148,
      "poss": 1149,
      "##ider": 1150,
      "cor": 1151,
      "mor": 1152,
      "##ret": 1153,
      "##ime": 1154,
      "##ney": 1155,
      "obvious": 1156,
      "rom": 1157,
      "##aps": 1158,
      "fav": 1159,
      "##uck": 1160,
      "pow": 1161,
      "det": 1162,
      "##io": 1163,
      "fall": 1164,
      "ann": 1165,
      "##ments": 1166,
      "##leas": 1167,
      "##ality": 1168,
      "plays": 1169,
      "camer": 1170,
      "excell": 1171,
      "sus": 1172,
      "sing": 1173,
      "audience": 1174,
      "##ences": 1175,
      "instead": 1176,
      "hour": 1177,
      "during": 1178,
      "said": 1179,
      "understand": 1180,
      "##itch": 1181,
      "review": 1182,
      "friends": 1183,
      "dead": 1184,
      "later": 1185,
      "takes": 1186,
      "left": 1187,
      "ass": 1188,
      "##ster": 1189,
      "else": 1190,
      "form": 1191,
      "ele": 1192,
      "home": 1193,
      "pa": 1194,
      "##pid": 1195,
      "beautiful": 1196,
      "tal": 1197,
      "##ray": 1198,
      "disc": 1199,
      "tot": 1200,
      "himself": 1201,
      "seeing": 1202,
      "simp": 1203,
      "##land": 1204,
      "tit": 1205,
      "heart": 1206,
      "dan": 1207,
      "serious": 1208,
      "##cing": 1209,
      "sty": 1210,
      "wife": 1211,
      "##ortun": 1212,
      "##ames": 1213,
      "##way": 1214,
      "cop": 1215,
      "##ro": 1216,
      "version": 1217,
      "excellent": 1218,
      "##sy": 1219,
      "dre": 1220,
      "use": 1221,
      "budget": 1222,
      "dist": 1223,
      "##ier": 1224,
      "idea": 1225,
      "father": 1226,
      "##ollywood": 1227,
      "came": 1228,
      "##gg": 1229,
      "##ern": 1230,
      "stupid": 1231,
      "##ited": 1232,
      "sad": 1233,
      "##atic": 1234,
      "##ists": 1235,
      "##ix": 1236,
      "##day": 1237,
      "mem": 1238,
      "defin": 1239,
      "entire": 1240,
      "##ren": 1241,
      "##ional": 1242,
      "ref": 1243,
      "anim": 1244,
      "feat": 1245,
      "invol": 1246,
      "hist": 1247,
      "human": 1248,
      "stud": 1249,
      "exc": 1250,
      "ang": 1251,
      "##reak": 1252,
      "unt": 1253,
      "fight": 1254,
      "along": 1255,
      "includ": 1256,
      "vide": 1257,
      "##arn": 1258,
      "##ton": 1259,
      "remember": 1260,
      "col": 1261,
      "pict": 1262,
      "vi": 1263,
      "wa": 1264,
      "open": 1265,
      "lack": 1266,
      "school": 1267,
      "##fully": 1268,
      "##ides": 1269,
      "red": 1270,
      "##ted": 1271,
      "used": 1272,
      "simply": 1273,
      "##0s": 1274,
      "beh": 1275,
      "gener": 1276,
      "line": 1277,
      "##ird": 1278,
      "hero": 1279,
      "completely": 1280,
      "disapp": 1281,
      "##uth": 1282,
      "attempt": 1283,
      "ret": 1284,
      "hope": 1285,
      "##vin": 1286,
      "song": 1287,
      "word": 1288,
      "dep": 1289,
      "sw": 1290,
      "dark": 1291,
      "loc": 1292,
      "wrong": 1293,
      "disappoint": 1294,
      "full": 1295,
      "bar": 1296,
      "ok": 1297,
      "hollywood": 1298,
      "##ired": 1299,
      "absol": 1300,
      "christ": 1301,
      "##ann": 1302,
      "##lease": 1303,
      "count": 1304,
      "##dd": 1305,
      "mess": 1306,
      "##ised": 1307,
      "je": 1308,
      "##ins": 1309,
      "absolute": 1310,
      "either": 1311,
      "ir": 1312,
      "##ets": 1313,
      "kids": 1314,
      "boring": 1315,
      "##uly": 1316,
      "try": 1317,
      "ra": 1318,
      "##ared": 1319,
      "except": 1320,
      "##ied": 1321,
      "pass": 1322,
      "camera": 1323,
      "conc": 1324,
      "emot": 1325,
      "production": 1326,
      "eas": 1327,
      "classic": 1328,
      "coll": 1329,
      "given": 1330,
      "supposed": 1331,
      "women": 1332,
      "##oon": 1333,
      "sn": 1334,
      "amaz": 1335,
      "##omb": 1336,
      "mod": 1337,
      "jack": 1338,
      "light": 1339,
      "won": 1340,
      "dri": 1341,
      "##cept": 1342,
      "small": 1343,
      "awful": 1344,
      "##ography": 1345,
      "##ru": 1346,
      "dou": 1347,
      "hu": 1348,
      "##tle": 1349,
      "nat": 1350,
      "next": 1351,
      "until": 1352,
      "particul": 1353,
      "performances": 1354,
      "##ented": 1355,
      "##ters": 1356,
      "fail": 1357,
      "name": 1358,
      "video": 1359,
      "##ys": 1360,
      "adv": 1361,
      "truly": 1362,
      "couple": 1363,
      "reg": 1364,
      "exam": 1365,
      "viol": 1366,
      "av": 1367,
      "murder": 1368,
      "mr": 1369,
      "blood": 1370,
      "consider": 1371,
      "##vers": 1372,
      "bat": 1373,
      "rid": 1374,
      "##itten": 1375,
      "sort": 1376,
      "##ize": 1377,
      "mid": 1378,
      "##ote": 1379,
      "god": 1380,
      "favor": 1381,
      "mother": 1382,
      "pain": 1383,
      "cut": 1384,
      "sat": 1385,
      "flick": 1386,
      "spo": 1387,
      "cred": 1388,
      "power": 1389,
      "definite": 1390,
      "humor": 1391,
      "ge": 1392,
      "master": 1393,
      "##amp": 1394,
      "sever": 1395,
      "terrible": 1396,
      "##oice": 1397,
      "becom": 1398,
      "##aring": 1399,
      "##wh": 1400,
      "getting": 1401,
      "face": 1402,
      "##haps": 1403,
      "rich": 1404,
      "mich": 1405,
      "##air": 1406,
      "perhaps": 1407,
      "portray": 1408,
      "walk": 1409,
      "moments": 1410,
      "##gr": 1411,
      "##cy": 1412,
      "##ities": 1413,
      "yes": 1414,
      "desp": 1415,
      "cur": 1416,
      "slow": 1417,
      "stars": 1418,
      "##lish": 1419,
      "itself": 1420,
      "##enn": 1421,
      "##que": 1422,
      "wonderful": 1423,
      "##elt": 1424,
      "gre": 1425,
      "har": 1426,
      "##sel": 1427,
      "cent": 1428,
      "##velop": 1429,
      "playing": 1430,
      "style": 1431,
      "##iness": 1432,
      "stop": 1433,
      "##oles": 1434,
      "guess": 1435,
      "episode": 1436,
      "live": 1437,
      "brother": 1438,
      "##ott": 1439,
      "others": 1440,
      "##olog": 1441,
      "pop": 1442,
      "brill": 1443,
      "##iant": 1444,
      "##rib": 1445,
      "case": 1446,
      "early": 1447,
      "##ison": 1448,
      "doing": 1449,
      "often": 1450,
      "##ility": 1451,
      "##ric": 1452,
      "written": 1453,
      "definitely": 1454,
      "capt": 1455,
      "lines": 1456,
      "oh": 1457,
      "children": 1458,
      "##sc": 1459,
      "dialogue": 1460,
      "pat": 1461,
      "##gn": 1462,
      "gives": 1463,
      "##med": 1464,
      "##body": 1465,
      "##ief": 1466,
      "went": 1467,
      "couldn": 1468,
      "unfortun": 1469,
      "piece": 1470,
      "actress": 1471,
      "##unch": 1472,
      "##reme": 1473,
      "fant": 1474,
      "trans": 1475,
      "##ident": 1476,
      "##cum": 1477,
      "dem": 1478,
      "develop": 1479,
      "dav": 1480,
      "##ories": 1481,
      "finally": 1482,
      "val": 1483,
      "title": 1484,
      "##ows": 1485,
      "cinema": 1486,
      "absolutely": 1487,
      "##ont": 1488,
      "##kes": 1489,
      "quest": 1490,
      "pred": 1491,
      "impress": 1492,
      "certainly": 1493,
      "side": 1494,
      "lost": 1495,
      "strong": 1496,
      "liked": 1497,
      "##mer": 1498,
      "become": 1499,
      "entertaining": 1500,
      "worse": 1501,
      "##oid": 1502,
      "son": 1503,
      "##tern": 1504,
      "loved": 1505,
      "picture": 1506,
      "##my": 1507,
      "##illy": 1508,
      "uni": 1509,
      "called": 1510,
      "thrill": 1511,
      "##ized": 1512,
      "##ork": 1513,
      "pur": 1514,
      "win": 1515,
      "mention": 1516,
      "cann": 1517,
      "##ined": 1518,
      "brilliant": 1519,
      "overall": 1520,
      "##ibly": 1521,
      "white": 1522,
      "felt": 1523,
      "contr": 1524,
      "##eng": 1525,
      "##yn": 1526,
      "guys": 1527,
      "based": 1528,
      "##ony": 1529,
      "several": 1530,
      "##ured": 1531,
      "extreme": 1532,
      "close": 1533,
      "##ush": 1534,
      "relations": 1535,
      "##ler": 1536,
      "beginning": 1537,
      "deli": 1538,
      "##ael": 1539,
      "drama": 1540,
      "spoil": 1541,
      "hon": 1542,
      "game": 1543,
      "##ouch": 1544,
      "##ming": 1545,
      "waste": 1546,
      "succ": 1547,
      "adm": 1548,
      "town": 1549,
      "##ley": 1550,
      "unc": 1551,
      "et": 1552,
      "against": 1553,
      "past": 1554,
      "fans": 1555,
      "dev": 1556,
      "evil": 1557,
      "list": 1558,
      "totally": 1559,
      "pet": 1560,
      "nov": 1561,
      "direction": 1562,
      "##ular": 1563,
      "##oup": 1564,
      "fair": 1565,
      "##used": 1566,
      "rock": 1567,
      "##imes": 1568,
      "wanted": 1569,
      "##arth": 1570,
      "lives": 1571,
      "##ains": 1572,
      "final": 1573,
      "seemed": 1574,
      "##ready": 1575,
      "stra": 1576,
      "##uss": 1577,
      "sci": 1578,
      "inf": 1579,
      "despite": 1580,
      "##selves": 1581,
      "lar": 1582,
      "##ump": 1583,
      "med": 1584,
      "example": 1585,
      "##ision": 1586,
      "support": 1587,
      "already": 1588,
      "##ew": 1589,
      "throughout": 1590,
      "##ove": 1591,
      "hit": 1592,
      "vill": 1593,
      "psy": 1594,
      "relationship": 1595,
      "success": 1596,
      "##ape": 1597,
      "cost": 1598,
      "##line": 1599,
      "psych": 1600,
      "##aughter": 1601,
      "becomes": 1602,
      "killer": 1603,
      "vict": 1604,
      "##king": 1605,
      "wood": 1606,
      "deal": 1607,
      "##ract": 1608,
      "michael": 1609,
      "unfortunately": 1610,
      "able": 1611,
      "quality": 1612,
      "la": 1613,
      "##ior": 1614,
      "del": 1615,
      "fine": 1616,
      "##osp": 1617,
      "break": 1618,
      "days": 1619,
      "stuff": 1620,
      "history": 1621,
      "##orn": 1622,
      "##ms": 1623,
      "susp": 1624,
      "rep": 1625,
      "self": 1626,
      "##ench": 1627,
      "ant": 1628,
      "crit": 1629,
      "##rif": 1630,
      "writing": 1631,
      "##amed": 1632,
      "deser": 1633,
      "mot": 1634,
      "robert": 1635,
      "##lev": 1636,
      "foot": 1637,
      "##ided": 1638,
      "##ement": 1639,
      "fem": 1640,
      "pick": 1641,
      "num": 1642,
      "group": 1643,
      "teen": 1644,
      "200": 1645,
      "comment": 1646,
      "occ": 1647,
      "##riend": 1648,
      "cult": 1649,
      "wants": 1650,
      "##ams": 1651,
      "touch": 1652,
      "stre": 1653,
      "maj": 1654,
      "horrible": 1655,
      "hell": 1656,
      "amazing": 1657,
      "##unk": 1658,
      "mark": 1659,
      "tom": 1660,
      "import": 1661,
      "mad": 1662,
      "prof": 1663,
      "##iss": 1664,
      "today": 1665,
      "works": 1666,
      "tech": 1667,
      "##ger": 1668,
      "prom": 1669,
      "eff": 1670,
      "matter": 1671,
      "soon": 1672,
      "##els": 1673,
      "annoy": 1674,
      "##ister": 1675,
      "docum": 1676,
      "shoot": 1677,
      "ger": 1678,
      "etc": 1679,
      "##ages": 1680,
      "appar": 1681,
      "##play": 1682,
      "##eth": 1683,
      "learn": 1684,
      "hilar": 1685,
      "gun": 1686,
      "situ": 1687,
      "##orge": 1688,
      "##ien": 1689,
      "wish": 1690,
      "tries": 1691,
      "viewer": 1692,
      "eyes": 1693,
      "genre": 1694,
      "sol": 1695,
      "enjoyed": 1696,
      "turns": 1697,
      "level": 1698,
      "behind": 1699,
      "late": 1700,
      "gave": 1701,
      "speak": 1702,
      "tre": 1703,
      "parts": 1704,
      "contin": 1705,
      "favorite": 1706,
      "city": 1707,
      "incred": 1708,
      "typ": 1709,
      "##yp": 1710,
      "##ude": 1711,
      "lea": 1712,
      "girls": 1713,
      "##ination": 1714,
      "directed": 1715,
      "swe": 1716,
      "prop": 1717,
      "appear": 1718,
      "sle": 1719,
      "##using": 1720,
      "##etic": 1721,
      "exact": 1722,
      "type": 1723,
      "rent": 1724,
      "##ts": 1725,
      "##ged": 1726,
      "##up": 1727,
      "##by": 1728,
      "non": 1729,
      "major": 1730,
      "document": 1731,
      "opp": 1732,
      "fig": 1733,
      "moment": 1734,
      "##ards": 1735,
      "inde": 1736,
      "air": 1737,
      "themselves": 1738,
      "obviously": 1739,
      "return": 1740,
      "techn": 1741,
      "sometimes": 1742,
      "##cess": 1743,
      "intell": 1744,
      "thinking": 1745,
      "killed": 1746,
      "bus": 1747,
      "gar": 1748,
      "four": 1749,
      "##vable": 1750,
      "##itive": 1751,
      "const": 1752,
      "myself": 1753,
      "hilarious": 1754,
      "starts": 1755,
      "##ution": 1756,
      "chang": 1757,
      "mil": 1758,
      "age": 1759,
      "decent": 1760,
      "##iet": 1761,
      "##ific": 1762,
      "daughter": 1763,
      "cool": 1764,
      "cinemat": 1765,
      "highly": 1766,
      "voice": 1767,
      "##ese": 1768,
      "hot": 1769,
      "##old": 1770,
      "event": 1771,
      "##ung": 1772,
      "releas": 1773,
      "##ipp": 1774,
      "says": 1775,
      "bab": 1776,
      "##astic": 1777,
      "anyway": 1778,
      "room": 1779,
      "hop": 1780,
      "ridicul": 1781,
      "writer": 1782,
      "hus": 1783,
      "known": 1784,
      "effort": 1785,
      "took": 1786,
      "camp": 1787,
      "mill": 1788,
      "heard": 1789,
      "happens": 1790,
      "hold": 1791,
      "brit": 1792,
      "##where": 1793,
      "feeling": 1794,
      "plan": 1795,
      "lu": 1796,
      "experience": 1797,
      "dog": 1798,
      "bur": 1799,
      "##antly": 1800,
      "coming": 1801,
      "##ross": 1802,
      "##ising": 1803,
      "##dle": 1804,
      "rating": 1805,
      "clich": 1806,
      "##band": 1807,
      "shock": 1808,
      "ben": 1809,
      "##ural": 1810,
      "esc": 1811,
      "##iest": 1812,
      "ridiculous": 1813,
      "deep": 1814,
      "var": 1815,
      "##ax": 1816,
      "stories": 1817,
      "police": 1818,
      "##eless": 1819,
      "husband": 1820,
      "leave": 1821,
      "crap": 1822,
      "david": 1823,
      "bro": 1824,
      "predict": 1825,
      "order": 1826,
      "cheap": 1827,
      "##gu": 1828,
      "score": 1829,
      "##like": 1830,
      "er": 1831,
      "told": 1832,
      "##bo": 1833,
      "stay": 1834,
      "##ered": 1835,
      "chance": 1836,
      "##akes": 1837,
      "strange": 1838,
      "extremely": 1839,
      "violence": 1840,
      "land": 1841,
      "convin": 1842,
      "living": 1843,
      "zomb": 1844,
      "involved": 1845,
      "##ett": 1846,
      "country": 1847,
      "##ator": 1848,
      "frank": 1849,
      "gore": 1850,
      "sil": 1851,
      "wes": 1852,
      "bring": 1853,
      "wouldn": 1854,
      "simple": 1855,
      "##tra": 1856,
      "quick": 1857,
      "cannot": 1858,
      "honest": 1859,
      "opin": 1860,
      "roles": 1861,
      "ten": 1862,
      "##ram": 1863,
      "james": 1864,
      "check": 1865,
      "particularly": 1866,
      "##ats": 1867,
      "save": 1868,
      "including": 1869,
      "english": 1870,
      "mart": 1871,
      "##ering": 1872,
      "weak": 1873,
      "polit": 1874,
      "looked": 1875,
      "musical": 1876,
      "##zy": 1877,
      "none": 1878,
      "please": 1879,
      "##antic": 1880,
      "desc": 1881,
      "dest": 1882,
      "##ried": 1883,
      "##ik": 1884,
      "pay": 1885,
      "##anger": 1886,
      "pos": 1887,
      "mel": 1888,
      "result": 1889,
      "step": 1890,
      "happened": 1891,
      "##cer": 1892,
      "sym": 1893,
      "forget": 1894,
      "##ians": 1895,
      "law": 1896,
      "pot": 1897,
      "huge": 1898,
      "body": 1899,
      "##nded": 1900,
      "sum": 1901,
      "ago": 1902,
      "taken": 1903,
      "novel": 1904,
      "shown": 1905,
      "##esh": 1906,
      "##dy": 1907,
      "fut": 1908,
      "sor": 1909,
      "lou": 1910,
      "talent": 1911,
      "pleas": 1912,
      "ill": 1913,
      "reality": 1914,
      "fill": 1915,
      "##use": 1916,
      "##mak": 1917,
      "##owing": 1918,
      "##ether": 1919,
      "seriously": 1920,
      "suspense": 1921,
      "released": 1922,
      "subject": 1923,
      "jokes": 1924,
      "phot": 1925,
      "##ustr": 1926,
      "near": 1927,
      "space": 1928,
      "post": 1929,
      "##ives": 1930,
      "opening": 1931,
      "earth": 1932,
      "prot": 1933,
      "##ational": 1934,
      "##arch": 1935,
      "##nds": 1936,
      "wee": 1937,
      "across": 1938,
      "alone": 1939,
      "##outh": 1940,
      "##lling": 1941,
      "##gan": 1942,
      "prem": 1943,
      "possible": 1944,
      "number": 1945,
      "exactly": 1946,
      "foc": 1947,
      "career": 1948,
      "sam": 1949,
      "spir": 1950,
      "saying": 1951,
      "197": 1952,
      "king": 1953,
      "sold": 1954,
      "build": 1955,
      "hours": 1956,
      "##ones": 1957,
      "usually": 1958,
      "##urb": 1959,
      "cinematography": 1960,
      "##iety": 1961,
      "doub": 1962,
      "dam": 1963,
      "##ield": 1964,
      "documentary": 1965,
      "ru": 1966,
      "ul": 1967,
      "running": 1968,
      "annoying": 1969,
      "yourself": 1970,
      "pull": 1971,
      "##iff": 1972,
      "middle": 1973,
      "##itting": 1974,
      "avoid": 1975,
      "##gic": 1976,
      "treat": 1977,
      "##co": 1978,
      "straight": 1979,
      "198": 1980,
      "##ival": 1981,
      "met": 1982,
      "similar": 1983,
      "##ground": 1984,
      "cart": 1985,
      "##ances": 1986,
      "whose": 1987,
      "shots": 1988,
      "##enty": 1989,
      "among": 1990,
      "modern": 1991,
      "##side": 1992,
      "20": 1993,
      "bey": 1994,
      "ones": 1995,
      "season": 1996,
      "taking": 1997,
      "##ino": 1998,
      "apart": 1999,
      "##he": 2000,
      "##wards": 2001,
      "important": 2002,
      "die": 2003,
      "ut": 2004,
      "suff": 2005,
      "german": 2006,
      "female": 2007,
      "narr": 2008,
      "fur": 2009,
      "ends": 2010,
      "gang": 2011,
      "opinion": 2012,
      "##ential": 2013,
      "gold": 2014,
      "started": 2015,
      "bill": 2016,
      "mist": 2017,
      "sent": 2018,
      "##ina": 2019,
      "##form": 2020,
      "change": 2021,
      "turned": 2022,
      "exist": 2023,
      "drug": 2024,
      "scary": 2025,
      "eye": 2026,
      "##ky": 2027,
      "telev": 2028,
      "jud": 2029,
      "ask": 2030,
      "##oul": 2031,
      "filmmak": 2032,
      "paul": 2033,
      "mostly": 2034,
      "usual": 2035,
      "##iction": 2036,
      "odd": 2037,
      "happy": 2038,
      "beyond": 2039,
      "box": 2040,
      "silly": 2041,
      "meet": 2042,
      "secret": 2043,
      "willi": 2044,
      "single": 2045,
      "##what": 2046,
      "##ma": 2047,
      "words": 2048,
      "somewhat": 2049,
      "talking": 2050,
      "knew": 2051,
      "##ball": 2052,
      "knows": 2053,
      "##br": 2054,
      "intr": 2055,
      "disappointed": 2056,
      "gh": 2057,
      "inn": 2058,
      "##otic": 2059,
      "local": 2060,
      "myst": 2061,
      "team": 2062,
      "detail": 2063,
      "apparently": 2064,
      "emb": 2065,
      "ear": 2066,
      "cover": 2067,
      "jap": 2068,
      "lo": 2069,
      "upon": 2070,
      "attention": 2071,
      "hands": 2072,
      "deliver": 2073,
      "suck": 2074,
      "due": 2075,
      "respect": 2076,
      "##ugg": 2077,
      "finds": 2078,
      "basically": 2079,
      "television": 2080,
      "equ": 2081,
      "osc": 2082,
      "remind": 2083,
      "aren": 2084,
      "western": 2085,
      "french": 2086,
      "##aged": 2087,
      "##lic": 2088,
      "##bel": 2089,
      "problems": 2090,
      "##ald": 2091,
      "du": 2092,
      "##gy": 2093,
      "199": 2094,
      "japan": 2095,
      "##oof": 2096,
      "fast": 2097,
      "cat": 2098,
      "forg": 2099,
      "episodes": 2100,
      "pub": 2101,
      "compl": 2102,
      "mer": 2103,
      "##ury": 2104,
      "clearly": 2105,
      "free": 2106,
      "hate": 2107,
      "##ili": 2108,
      "thriller": 2109,
      "exp": 2110,
      "##ctor": 2111,
      "intellig": 2112,
      "sign": 2113,
      "atm": 2114,
      "appre": 2115,
      "creep": 2116,
      "##ec": 2117,
      "british": 2118,
      "stun": 2119,
      "##ox": 2120,
      "five": 2121,
      "theat": 2122,
      "grand": 2123,
      "atmosp": 2124,
      "##ises": 2125,
      "jer": 2126,
      "mc": 2127,
      "events": 2128,
      "vir": 2129,
      "sequence": 2130,
      "dull": 2131,
      "wind": 2132,
      "##ital": 2133,
      "##ants": 2134,
      "##ished": 2135,
      "##track": 2136,
      "romantic": 2137,
      "fi": 2138,
      "prog": 2139,
      "moving": 2140,
      "##orable": 2141,
      "soundtrack": 2142,
      "comic": 2143,
      "tells": 2144,
      "clear": 2145,
      "path": 2146,
      "mater": 2147,
      "van": 2148,
      "predictable": 2149,
      "appreci": 2150,
      "##usion": 2151,
      "entertainment": 2152,
      "previous": 2153,
      "twist": 2154,
      "songs": 2155,
      "explain": 2156,
      "present": 2157,
      "question": 2158,
      "future": 2159,
      "whether": 2160,
      "george": 2161,
      "##how": 2162,
      "unlike": 2163,
      "norm": 2164,
      "hun": 2165,
      "sexual": 2166,
      "##aim": 2167,
      "richard": 2168,
      "above": 2169,
      "##key": 2170,
      "sets": 2171,
      "fre": 2172,
      "easily": 2173,
      "enjoyable": 2174,
      "haven": 2175,
      "attack": 2176,
      "appears": 2177,
      "fell": 2178,
      "##rop": 2179,
      "##lin": 2180,
      "fire": 2181,
      "lots": 2182,
      "##iod": 2183,
      "##ots": 2184,
      "aspect": 2185,
      "trou": 2186,
      "giving": 2187,
      "doubt": 2188,
      "surv": 2189,
      "water": 2190,
      "material": 2191,
      "visual": 2192,
      "feature": 2193,
      "supporting": 2194,
      "message": 2195,
      "adult": 2196,
      "##arely": 2197,
      "vamp": 2198,
      "sister": 2199,
      "release": 2200,
      "monster": 2201,
      "##alian": 2202,
      "within": 2203,
      "filmed": 2204,
      "comb": 2205,
      "sequel": 2206,
      "bunch": 2207,
      "insp": 2208,
      "cap": 2209,
      "falls": 2210,
      "victim": 2211,
      "ca": 2212,
      "hom": 2213,
      "dream": 2214,
      "easy": 2215,
      "los": 2216,
      "flaw": 2217,
      "period": 2218,
      "needs": 2219,
      "ways": 2220,
      "##ices": 2221,
      "slight": 2222,
      "##nding": 2223,
      "accept": 2224,
      "##ike": 2225,
      "surprised": 2226,
      "##ension": 2227,
      "showing": 2228,
      "aff": 2229,
      "##wise": 2230,
      "##ps": 2231,
      "##any": 2232,
      "##ength": 2233,
      "sorry": 2234,
      "tried": 2235,
      "lady": 2236,
      "##tim": 2237,
      "working": 2238,
      "ham": 2239,
      "adapt": 2240,
      "buy": 2241,
      "oper": 2242,
      "theater": 2243,
      "theme": 2244,
      "##path": 2245,
      "truth": 2246,
      "train": 2247,
      "##den": 2248,
      "parents": 2249,
      "hall": 2250,
      "superb": 2251,
      "##res": 2252,
      "##ental": 2253,
      "##asc": 2254,
      "jul": 2255,
      "tar": 2256,
      "match": 2257,
      "stri": 2258,
      "setting": 2259,
      "named": 2260,
      "large": 2261,
      "reve": 2262,
      "wait": 2263,
      "personal": 2264,
      "storyline": 2265,
      "flash": 2266,
      "advent": 2267,
      "##aught": 2268,
      "##aced": 2269,
      "minute": 2270,
      "##ubb": 2271,
      "park": 2272,
      "gone": 2273,
      "express": 2274,
      "sugg": 2275,
      "general": 2276,
      "aver": 2277,
      "suggest": 2278,
      "actual": 2279,
      "dumb": 2280,
      "##essed": 2281,
      "iss": 2282,
      "tale": 2283,
      "##oose": 2284,
      "using": 2285,
      "roll": 2286,
      "##ires": 2287,
      "typical": 2288,
      "est": 2289,
      "##ey": 2290,
      "comments": 2291,
      "famous": 2292,
      "mystery": 2293,
      "ultim": 2294,
      "##iel": 2295,
      "editing": 2296,
      "contain": 2297,
      "oscar": 2298,
      "##omp": 2299,
      "deb": 2300,
      "##ope": 2301,
      "ine": 2302,
      "peter": 2303,
      "okay": 2304,
      "fantastic": 2305,
      "front": 2306,
      "weird": 2307,
      "viewers": 2308,
      "wild": 2309,
      "realistic": 2310,
      "feels": 2311,
      "jim": 2312,
      "meaning": 2313,
      "nearly": 2314,
      "kept": 2315,
      "##icult": 2316,
      "den": 2317,
      "viewing": 2318,
      "##lly": 2319,
      "sens": 2320,
      "clim": 2321,
      "obs": 2322,
      "elements": 2323,
      "lim": 2324,
      "points": 2325,
      "crime": 2326,
      "lat": 2327,
      "herself": 2328,
      "greatest": 2329,
      "fly": 2330,
      "means": 2331,
      "soc": 2332,
      "cal": 2333,
      "profess": 2334,
      "teach": 2335,
      "difficult": 2336,
      "imagine": 2337,
      "hear": 2338,
      "band": 2339,
      "shame": 2340,
      "third": 2341,
      "##back": 2342,
      "decided": 2343,
      "bother": 2344,
      "york": 2345,
      "pu": 2346,
      "writ": 2347,
      "rad": 2348,
      "##dden": 2349,
      "##sh": 2350,
      "catch": 2351,
      "##uses": 2352,
      "introdu": 2353,
      "fu": 2354,
      "sudden": 2355,
      "##bers": 2356,
      "##ceed": 2357,
      "##opp": 2358,
      "move": 2359,
      "believable": 2360,
      "mix": 2361,
      "wall": 2362,
      "project": 2363,
      "business": 2364,
      "##ially": 2365,
      "brought": 2366,
      "##rit": 2367,
      "##sw": 2368,
      "mo": 2369,
      "##asy": 2370,
      "195": 2371,
      "doctor": 2372,
      "conne": 2373,
      "auth": 2374,
      "somehow": 2375,
      "##db": 2376,
      "begins": 2377,
      "masterp": 2378,
      "##imin": 2379,
      "animation": 2380,
      "figure": 2381,
      "utter": 2382,
      "##ening": 2383,
      "note": 2384,
      "chees": 2385,
      "leads": 2386,
      "reviews": 2387,
      "imdb": 2388,
      "lang": 2389,
      "liter": 2390,
      "pure": 2391,
      "lee": 2392,
      "##na": 2393,
      "da": 2394,
      "surprise": 2395,
      "america": 2396,
      "average": 2397,
      "background": 2398,
      "##light": 2399,
      "crew": 2400,
      "exec": 2401,
      "gay": 2402,
      "lame": 2403,
      "atmosphere": 2404,
      "##uc": 2405,
      "prin": 2406,
      "sequences": 2407,
      "refer": 2408,
      "killing": 2409,
      "hy": 2410,
      "##ored": 2411,
      "hur": 2412,
      "une": 2413,
      "whate": 2414,
      "eventually": 2415,
      "premise": 2416,
      "whatever": 2417,
      "expected": 2418,
      "dance": 2419,
      "prison": 2420,
      "##omin": 2421,
      "wit": 2422,
      "##onic": 2423,
      "island": 2424,
      "particular": 2425,
      "mass": 2426,
      "rand": 2427,
      "stere": 2428,
      "boys": 2429,
      "indeed": 2430,
      "clever": 2431,
      "poorly": 2432,
      "stage": 2433,
      "street": 2434,
      "tast": 2435,
      "##ges": 2436,
      "##view": 2437,
      "##aling": 2438,
      "situation": 2439,
      "forward": 2440,
      "girlf": 2441,
      "eur": 2442,
      "phil": 2443,
      "resp": 2444,
      "public": 2445,
      "##ously": 2446,
      "brain": 2447,
      "##ula": 2448,
      "battle": 2449,
      "society": 2450,
      "sick": 2451,
      "beat": 2452,
      "##head": 2453,
      "enc": 2454,
      "heav": 2455,
      "##roy": 2456,
      "stick": 2457,
      "##ively": 2458,
      "male": 2459,
      "romance": 2460,
      "girlfriend": 2461,
      "needed": 2462,
      "commun": 2463,
      "jour": 2464,
      "thank": 2465,
      "acted": 2466,
      "mach": 2467,
      "##ana": 2468,
      "emotional": 2469,
      "leaves": 2470,
      "hair": 2471,
      "unless": 2472,
      "possibly": 2473,
      "##ogn": 2474,
      "footage": 2475,
      "bull": 2476,
      "##real": 2477,
      "inte": 2478,
      "##let": 2479,
      "write": 2480,
      "credits": 2481,
      "forced": 2482,
      "revol": 2483,
      "memorable": 2484,
      "##iences": 2485,
      "became": 2486,
      "bored": 2487,
      "reading": 2488,
      "sleep": 2489,
      "further": 2490,
      "strugg": 2491,
      "earli": 2492,
      "jump": 2493,
      "otherwise": 2494,
      "costum": 2495,
      "starr": 2496,
      "##emy": 2497,
      "copy": 2498,
      "baby": 2499,
      "ver": 2500,
      "##bs": 2501,
      "spirit": 2502,
      "fran": 2503,
      "allow": 2504,
      "total": 2505,
      "nature": 2506,
      "luck": 2507,
      "flat": 2508,
      "bed": 2509,
      "emotion": 2510,
      "clos": 2511,
      "beauty": 2512,
      "##com": 2513,
      "meets": 2514,
      "colle": 2515,
      "##fer": 2516,
      "cir": 2517,
      "plus": 2518,
      "cheesy": 2519,
      "bre": 2520,
      "stereot": 2521,
      "histor": 2522,
      "##ager": 2523,
      "impr": 2524,
      "##bert": 2525,
      "villain": 2526,
      "masterpiece": 2527,
      "screenplay": 2528,
      "disney": 2529,
      "unique": 2530,
      "##uted": 2531,
      "##right": 2532,
      "features": 2533,
      "##rific": 2534,
      "collect": 2535,
      "##ius": 2536,
      "interested": 2537,
      "##overs": 2538,
      "whom": 2539,
      "perfectly": 2540,
      "laughs": 2541,
      "hol": 2542,
      "uns": 2543,
      "discover": 2544,
      "80": 2545,
      "badly": 2546,
      "track": 2547,
      "inside": 2548,
      "sounds": 2549,
      "extra": 2550,
      "japanese": 2551,
      "##cers": 2552,
      "fasc": 2553,
      "meant": 2554,
      "doll": 2555,
      "ale": 2556,
      "ach": 2557,
      "und": 2558,
      "scott": 2559,
      "quickly": 2560,
      "##more": 2561,
      "tur": 2562,
      "##pend": 2563,
      "crazy": 2564,
      "concept": 2565,
      "##row": 2566,
      "repe": 2567,
      "cru": 2568,
      "cartoon": 2569,
      "kick": 2570,
      "##por": 2571,
      "keeps": 2572,
      "##agon": 2573,
      "disturb": 2574,
      "towards": 2575,
      "conv": 2576,
      "trad": 2577,
      "cross": 2578,
      "##ived": 2579,
      "writers": 2580,
      "popular": 2581,
      "ghost": 2582,
      "ble": 2583,
      "##oph": 2584,
      "joe": 2585,
      "30": 2586,
      "##ara": 2587,
      "innoc": 2588,
      "##iliar": 2589,
      "##uct": 2590,
      "##str": 2591,
      "worked": 2592,
      "drag": 2593,
      "196": 2594,
      "incredibly": 2595,
      "trash": 2596,
      "earlier": 2597,
      "##olf": 2598,
      "cond": 2599,
      "sal": 2600,
      "leg": 2601,
      "ball": 2602,
      "charl": 2603,
      "##rupt": 2604,
      "scient": 2605,
      "##zz": 2606,
      "occas": 2607,
      "answ": 2608,
      "directors": 2609,
      "purp": 2610,
      "fest": 2611,
      "pal": 2612,
      "rate": 2613,
      "##isf": 2614,
      "dramatic": 2615,
      "realize": 2616,
      "powerful": 2617,
      "amount": 2618,
      "joke": 2619,
      "older": 2620,
      "##hood": 2621,
      "stat": 2622,
      "following": 2623,
      "various": 2624,
      "william": 2625,
      "193": 2626,
      "sand": 2627,
      "recogn": 2628,
      "sweet": 2629,
      "plenty": 2630,
      "imm": 2631,
      "development": 2632,
      "fat": 2633,
      "les": 2634,
      "directing": 2635,
      "langu": 2636,
      "agree": 2637,
      "green": 2638,
      "creepy": 2639,
      "angel": 2640,
      "brings": 2641,
      "offic": 2642,
      "##inc": 2643,
      "##ries": 2644,
      "burn": 2645,
      "plain": 2646,
      "design": 2647,
      "kar": 2648,
      "repr": 2649,
      "ign": 2650,
      "alien": 2651,
      "##aked": 2652,
      "ess": 2653,
      "cry": 2654,
      "porn": 2655,
      "##gest": 2656,
      "trail": 2657,
      "##ips": 2658,
      "ident": 2659,
      "invest": 2660,
      "soul": 2661,
      "admit": 2662,
      "political": 2663,
      "nud": 2664,
      "mir": 2665,
      "leading": 2666,
      "fairly": 2667,
      "reasons": 2668,
      "era": 2669,
      "pie": 2670,
      "spent": 2671,
      "portrayed": 2672,
      "cas": 2673,
      "appro": 2674,
      "phys": 2675,
      "##cessary": 2676,
      "social": 2677,
      "zombie": 2678,
      "chann": 2679,
      "attract": 2680,
      "outside": 2681,
      "party": 2682,
      "15": 2683,
      "##ding": 2684,
      "telling": 2685,
      "##aces": 2686,
      "wasted": 2687,
      "neg": 2688,
      "scar": 2689,
      "fighting": 2690,
      "record": 2691,
      "##itty": 2692,
      "fails": 2693,
      "hitch": 2694,
      "deserves": 2695,
      "mood": 2696,
      "color": 2697,
      "ber": 2698,
      "russ": 2699,
      "##ken": 2700,
      "anti": 2701,
      "fit": 2702,
      "##lect": 2703,
      "travel": 2704,
      "cold": 2705,
      "escape": 2706,
      "##itted": 2707,
      "danger": 2708,
      "##acing": 2709,
      "destroy": 2710,
      "create": 2711,
      "##ient": 2712,
      "relig": 2713,
      "expecting": 2714,
      "cute": 2715,
      "sun": 2716,
      "terror": 2717,
      "ideas": 2718,
      "missing": 2719,
      "attempts": 2720,
      "ended": 2721,
      "idi": 2722,
      "##ague": 2723,
      "fantasy": 2724,
      "sympath": 2725,
      "manages": 2726,
      "road": 2727,
      "dad": 2728,
      "recently": 2729,
      "subtle": 2730,
      "familiar": 2731,
      "accident": 2732,
      "caught": 2733,
      "194": 2734,
      "talented": 2735,
      "members": 2736,
      "regard": 2737,
      "##friend": 2738,
      "depth": 2739,
      "log": 2740,
      "requ": 2741,
      "common": 2742,
      "produced": 2743,
      "hardly": 2744,
      "spoilers": 2745,
      "biz": 2746,
      "##ivid": 2747,
      "##mas": 2748,
      "##ene": 2749,
      "italian": 2750,
      "laughing": 2751,
      "##ze": 2752,
      "brief": 2753,
      "office": 2754,
      "remake": 2755,
      "##par": 2756,
      "positive": 2757,
      "fear": 2758,
      "desper": 2759,
      "react": 2760,
      "nudity": 2761,
      "din": 2762,
      "##inary": 2763,
      "funn": 2764,
      "jane": 2765,
      "##off": 2766,
      "news": 2767,
      "potential": 2768,
      "filmmakers": 2769,
      "search": 2770,
      "bond": 2771,
      "ray": 2772,
      "amb": 2773,
      "achie": 2774,
      "pace": 2775,
      "##bor": 2776,
      "##arre": 2777,
      "century": 2778,
      "tort": 2779,
      "embarr": 2780,
      "##medi": 2781,
      "mas": 2782,
      "state": 2783,
      "created": 2784,
      "##ology": 2785,
      "casting": 2786,
      "ri": 2787,
      "##lu": 2788,
      "company": 2789,
      "missed": 2790,
      "immedi": 2791,
      "wrote": 2792,
      "embarrass": 2793,
      "married": 2794,
      "broad": 2795,
      "mac": 2796,
      "gover": 2797,
      "ur": 2798,
      "##ero": 2799,
      "control": 2800,
      "medi": 2801,
      "claim": 2802,
      "##ishing": 2803,
      "force": 2804,
      "europe": 2805,
      "##ills": 2806,
      "##izing": 2807,
      "forgot": 2808,
      "reach": 2809,
      "waiting": 2810,
      "##iny": 2811,
      "former": 2812,
      "credit": 2813,
      "stereotyp": 2814,
      "##ned": 2815,
      "intri": 2816,
      "##belie": 2817,
      "filled": 2818,
      "cause": 2819,
      "##go": 2820,
      "store": 2821,
      "complex": 2822,
      "90": 2823,
      "##urs": 2824,
      "arri": 2825,
      "##iers": 2826,
      "##ai": 2827,
      "fash": 2828,
      "gri": 2829,
      "incredible": 2830,
      "lab": 2831,
      "science": 2832,
      "mentioned": 2833,
      "sadly": 2834,
      "myster": 2835,
      "slightly": 2836,
      "considering": 2837,
      "bomb": 2838,
      "intern": 2839,
      "##istry": 2840,
      "died": 2841,
      "approach": 2842,
      "##work": 2843,
      "##ring": 2844,
      "##orm": 2845,
      "language": 2846,
      "unbelie": 2847,
      "draw": 2848,
      "ce": 2849,
      "##ites": 2850,
      "rece": 2851,
      "##ades": 2852,
      "chem": 2853,
      "##venge": 2854,
      "delight": 2855,
      "##erv": 2856,
      "pointless": 2857,
      "pack": 2858,
      "ted": 2859,
      "arr": 2860,
      "rap": 2861,
      "tension": 2862,
      "fol": 2863,
      "##acy": 2864,
      "scream": 2865,
      "squ": 2866,
      "lege": 2867,
      "slas": 2868,
      "##aging": 2869,
      "convincing": 2870,
      "bes": 2871,
      "uses": 2872,
      "genu": 2873,
      "ground": 2874,
      "##berg": 2875,
      "decides": 2876,
      "value": 2877,
      "trouble": 2878,
      "sees": 2879,
      "##rage": 2880,
      "##sters": 2881,
      "detect": 2882,
      "govern": 2883,
      "dancing": 2884,
      "entirely": 2885,
      "week": 2886,
      "##uce": 2887,
      "ram": 2888,
      "##esome": 2889,
      "##ibility": 2890,
      "dim": 2891,
      "imposs": 2892,
      "neither": 2893,
      "ran": 2894,
      "tough": 2895,
      "##lusion": 2896,
      "solid": 2897,
      "intelligent": 2898,
      "bizarre": 2899,
      "dir": 2900,
      "comput": 2901,
      "fred": 2902,
      "genuine": 2903,
      "remark": 2904,
      "test": 2905,
      "##aud": 2906,
      "compared": 2907,
      "follows": 2908,
      "west": 2909,
      "choice": 2910,
      "mere": 2911,
      "portrayal": 2912,
      "glad": 2913,
      "appreciate": 2914,
      "suddenly": 2915,
      "##itation": 2916,
      "college": 2917,
      "alive": 2918,
      "blue": 2919,
      "six": 2920,
      "wer": 2921,
      "que": 2922,
      "##ders": 2923,
      "##alth": 2924,
      "smo": 2925,
      "younger": 2926,
      "moves": 2927,
      "brothers": 2928,
      "##eem": 2929,
      "breat": 2930,
      "garb": 2931,
      "##lict": 2932,
      "haun": 2933,
      "violent": 2934,
      "##pped": 2935,
      "yeah": 2936,
      "critic": 2937,
      "##uster": 2938,
      "biggest": 2939,
      "images": 2940,
      "##ral": 2941,
      "accent": 2942,
      "##gar": 2943,
      "key": 2944,
      "bott": 2945,
      "fashion": 2946,
      "cand": 2947,
      "slasher": 2948,
      "suspect": 2949,
      "producers": 2950,
      "jew": 2951,
      "satisf": 2952,
      "humour": 2953,
      "##ounter": 2954,
      "exciting": 2955,
      "##ka": 2956,
      "fort": 2957,
      "depict": 2958,
      "fiction": 2959,
      "south": 2960,
      "bob": 2961,
      "mal": 2962,
      "##uit": 2963,
      "recommended": 2964,
      "successful": 2965,
      "brut": 2966,
      "amusing": 2967,
      "awesome": 2968,
      "product": 2969,
      "christmas": 2970,
      "situations": 2971,
      "compet": 2972,
      "channel": 2973,
      "focus": 2974,
      "magn": 2975,
      "manner": 2976,
      "studio": 2977,
      "proc": 2978,
      "longer": 2979,
      "culture": 2980,
      "pathetic": 2981,
      "ups": 2982,
      "shar": 2983,
      "continu": 2984,
      "adventure": 2985,
      "##isingly": 2986,
      "minor": 2987,
      "revenge": 2988,
      "basic": 2989,
      "purpose": 2990,
      "fake": 2991,
      "spend": 2992,
      "##ki": 2993,
      "##ches": 2994,
      "50": 2995,
      "remain": 2996,
      "##ilt": 2997,
      "##sey": 2998,
      "arg": 2999,
      "crimin": 3000,
      "##ppy": 3001,
      "thanks": 3002,
      "ultimately": 3003,
      "##ron": 3004,
      "kills": 3005,
      "smart": 3006,
      "door": 3007,
      "interview": 3008,
      "decide": 3009,
      "trip": 3010,
      "ii": 3011,
      "milit": 3012,
      "spot": 3013,
      "effective": 3014,
      "faith": 3015,
      "recent": 3016,
      "vampire": 3017,
      "##iment": 3018,
      "disg": 3019,
      "carry": 3020,
      "mary": 3021,
      "100": 3022,
      "cliche": 3023,
      "##iced": 3024,
      "hid": 3025,
      "##ribly": 3026,
      "questions": 3027,
      "fascin": 3028,
      "##ette": 3029,
      "##to": 3030,
      "taste": 3031,
      "alex": 3032,
      "inform": 3033,
      "##ille": 3034,
      "likes": 3035,
      "garbage": 3036,
      "barely": 3037,
      "wal": 3038,
      "singing": 3039,
      "journey": 3040,
      "##oe": 3041,
      "aside": 3042,
      "repres": 3043,
      "##ization": 3044,
      "impressive": 3045,
      "impossible": 3046,
      "##gi": 3047,
      "suit": 3048,
      "changed": 3049,
      "##ee": 3050,
      "##ased": 3051,
      "natural": 3052,
      "spect": 3053,
      "indian": 3054,
      "weren": 3055,
      "div": 3056,
      "normal": 3057,
      "hang": 3058,
      "rated": 3059,
      "amate": 3060,
      "concern": 3061,
      "values": 3062,
      "flo": 3063,
      "##wart": 3064,
      "depress": 3065,
      "involving": 3066,
      "bi": 3067,
      "mag": 3068,
      "compe": 3069,
      "throw": 3070,
      "genius": 3071,
      "assum": 3072,
      "lif": 3073,
      "loud": 3074,
      "##mar": 3075,
      "leaving": 3076,
      "fool": 3077,
      "heavy": 3078,
      "proper": 3079,
      "showed": 3080,
      "##oved": 3081,
      "runs": 3082,
      "gag": 3083,
      "repl": 3084,
      "charles": 3085,
      "##rew": 3086,
      "fore": 3087,
      "##standing": 3088,
      "tun": 3089,
      "explo": 3090,
      "shooting": 3091,
      "opportun": 3092,
      "fox": 3093,
      "##ha": 3094,
      "avail": 3095,
      "##while": 3096,
      "afric": 3097,
      "books": 3098,
      "literally": 3099,
      "starring": 3100,
      "##min": 3101,
      "somewhere": 3102,
      "sher": 3103,
      "failed": 3104,
      "demon": 3105,
      "##ole": 3106,
      "##come": 3107,
      "disturbing": 3108,
      "chemistry": 3109,
      "numb": 3110,
      "hey": 3111,
      "million": 3112,
      "pers": 3113,
      "legend": 3114,
      "##arily": 3115,
      "notice": 3116,
      "##anda": 3117,
      "##ensive": 3118,
      "immediately": 3119,
      "magic": 3120,
      "army": 3121,
      "nobody": 3122,
      "makers": 3123,
      "##ological": 3124,
      "bought": 3125,
      "gem": 3126,
      "jones": 3127,
      "##rated": 3128,
      "honestly": 3129,
      "grade": 3130,
      "audiences": 3131,
      "considered": 3132,
      "length": 3133,
      "affect": 3134,
      "random": 3135,
      "bottom": 3136,
      "soldiers": 3137,
      "##boy": 3138,
      "ability": 3139,
      "club": 3140,
      "passion": 3141,
      "conclusion": 3142,
      "##ened": 3143,
      "ship": 3144,
      "##sequ": 3145,
      "pract": 3146,
      "sitting": 3147,
      "harr": 3148,
      "##ging": 3149,
      "host": 3150,
      "##uff": 3151,
      "##inger": 3152,
      "accur": 3153,
      "pictures": 3154,
      "mi": 3155,
      "sar": 3156,
      "arm": 3157,
      "reveal": 3158,
      "stan": 3159,
      "##izes": 3160,
      "boyfriend": 3161,
      "##xic": 3162,
      "fresh": 3163,
      "exception": 3164,
      "favour": 3165,
      "chase": 3166,
      "author": 3167,
      "##cious": 3168,
      "suc": 3169,
      "twists": 3170,
      "##ifully": 3171,
      "added": 3172,
      "surprisingly": 3173,
      "chick": 3174,
      "sexy": 3175,
      "##aly": 3176,
      "serv": 3177,
      "lond": 3178,
      "##appe": 3179,
      "award": 3180,
      "standard": 3181,
      "##men": 3182,
      "thinks": 3183,
      "##ified": 3184,
      "mouth": 3185,
      "producer": 3186,
      "addition": 3187,
      "boss": 3188,
      "##ta": 3189,
      "investig": 3190,
      "tone": 3191,
      "vo": 3192,
      "indust": 3193,
      "edge": 3194,
      "succeed": 3195,
      "lad": 3196,
      "affair": 3197,
      "unex": 3198,
      "london": 3199,
      "impression": 3200,
      "##aking": 3201,
      "compar": 3202,
      "stunning": 3203,
      "issues": 3204,
      "mysterious": 3205,
      "joy": 3206,
      "neigh": 3207,
      "naked": 3208,
      "crow": 3209,
      "government": 3210,
      "ast": 3211,
      "##ios": 3212,
      "barb": 3213,
      "witch": 3214,
      "##idence": 3215,
      "personally": 3216,
      "appeal": 3217,
      "wise": 3218,
      "computer": 3219,
      "##fort": 3220,
      "##aper": 3221,
      "nowhere": 3222,
      "animated": 3223,
      "motion": 3224,
      "##cast": 3225,
      "##bl": 3226,
      "redeem": 3227,
      "jeff": 3228,
      "planet": 3229,
      "##rel": 3230,
      "paris": 3231,
      "everybody": 3232,
      "##cif": 3233,
      "witness": 3234,
      "silent": 3235,
      "amateur": 3236,
      "cow": 3237,
      "pieces": 3238,
      "seg": 3239,
      "smith": 3240,
      "beautifully": 3241,
      "likely": 3242,
      "insult": 3243,
      "finish": 3244,
      "graph": 3245,
      "military": 3246,
      "hen": 3247,
      "ride": 3248,
      "curr": 3249,
      "mult": 3250,
      "complain": 3251,
      "sell": 3252,
      "##ode": 3253,
      "##wor": 3254,
      "chris": 3255,
      "##ining": 3256,
      "remains": 3257,
      "threat": 3258,
      "program": 3259,
      "pun": 3260,
      "tem": 3261,
      "wow": 3262,
      "##att": 3263,
      "##ify": 3264,
      "available": 3265,
      "##cock": 3266,
      "generally": 3267,
      "appearance": 3268,
      "climax": 3269,
      "charlie": 3270,
      "70": 3271,
      "##oop": 3272,
      "terms": 3273,
      "jean": 3274,
      "opera": 3275,
      "flashback": 3276,
      "tor": 3277,
      "cinematic": 3278,
      "respons": 3279,
      "month": 3280,
      "spoiler": 3281,
      "surr": 3282,
      "conflict": 3283,
      "victor": 3284,
      "civ": 3285,
      "##urd": 3286,
      "scenery": 3287,
      "steve": 3288,
      "drive": 3289,
      "photography": 3290,
      "date": 3291,
      "pil": 3292,
      "rain": 3293,
      "##gen": 3294,
      "##iance": 3295,
      "east": 3296,
      "chall": 3297,
      "cell": 3298,
      "austr": 3299,
      "presence": 3300,
      "hosp": 3301,
      "##ops": 3302,
      "prep": 3303,
      "comedies": 3304,
      "utterly": 3305,
      "historical": 3306,
      "charming": 3307,
      "loose": 3308,
      "ry": 3309,
      "lovely": 3310,
      "adaptation": 3311,
      "##erous": 3312,
      "terrific": 3313,
      "bal": 3314,
      "innocent": 3315,
      "18": 3316,
      "drink": 3317,
      "giant": 3318,
      "##lessly": 3319,
      "describ": 3320,
      "intrigu": 3321,
      "names": 3322,
      "init": 3323,
      "##ford": 3324,
      "christian": 3325,
      "##die": 3326,
      "##icide": 3327,
      "harry": 3328,
      "influ": 3329,
      "connect": 3330,
      "net": 3331,
      "disappointing": 3332,
      "boo": 3333,
      "rare": 3334,
      "##isc": 3335,
      "chap": 3336,
      "managed": 3337,
      "commer": 3338,
      "##opher": 3339,
      "knowing": 3340,
      "laughable": 3341,
      "##riage": 3342,
      "constantly": 3343,
      "changes": 3344,
      "rip": 3345,
      "soft": 3346,
      "loves": 3347,
      "emotions": 3348,
      "narrative": 3349,
      "tradition": 3350,
      "##oud": 3351,
      "##ura": 3352,
      "thrown": 3353,
      "walking": 3354,
      "ring": 3355,
      "##mm": 3356,
      "detective": 3357,
      "der": 3358,
      "individ": 3359,
      "suppose": 3360,
      "escap": 3361,
      "details": 3362,
      "##ores": 3363,
      "eight": 3364,
      "##rick": 3365,
      "##stem": 3366,
      "arch": 3367,
      "zombies": 3368,
      "##iring": 3369,
      "##anna": 3370,
      "##ham": 3371,
      "##itions": 3372,
      "behav": 3373,
      "building": 3374,
      "##han": 3375,
      "offer": 3376,
      "protagon": 3377,
      "11": 3378,
      "pen": 3379,
      "dress": 3380,
      "places": 3381,
      "charm": 3382,
      "touching": 3383,
      "unbelievable": 3384,
      "tony": 3385,
      "ug": 3386,
      "##aus": 3387,
      "##kn": 3388,
      "thus": 3389,
      "##verse": 3390,
      "hurt": 3391,
      "kr": 3392,
      "##wr": 3393,
      "ash": 3394,
      "surf": 3395,
      "system": 3396,
      "costumes": 3397,
      "civil": 3398,
      "##ropri": 3399,
      "breath": 3400,
      "led": 3401,
      "painful": 3402,
      "besides": 3403,
      "block": 3404,
      "slowly": 3405,
      "shakes": 3406,
      "intended": 3407,
      "absurd": 3408,
      "race": 3409,
      "bruce": 3410,
      "moral": 3411,
      "chur": 3412,
      "noir": 3413,
      "student": 3414,
      "field": 3415,
      "pan": 3416,
      "thin": 3417,
      "intense": 3418,
      "spl": 3419,
      "surround": 3420,
      "presented": 3421,
      "excuse": 3422,
      "round": 3423,
      "rog": 3424,
      "##itude": 3425,
      "filming": 3426,
      "speaking": 3427,
      "festival": 3428,
      "medioc": 3429,
      "##ek": 3430,
      "independ": 3431,
      "stands": 3432,
      "hitchcock": 3433,
      "contains": 3434,
      "dies": 3435,
      "##vey": 3436,
      "drunk": 3437,
      "grant": 3438,
      "feelings": 3439,
      "radio": 3440,
      "##ped": 3441,
      "trust": 3442,
      "central": 3443,
      "outstanding": 3444,
      "object": 3445,
      "correct": 3446,
      "equally": 3447,
      "aut": 3448,
      "hoping": 3449,
      "hospital": 3450,
      "ww": 3451,
      "desert": 3452,
      "puts": 3453,
      "13": 3454,
      "eat": 3455,
      "themes": 3456,
      "##icated": 3457,
      "##eter": 3458,
      "forever": 3459,
      "acts": 3460,
      "individual": 3461,
      "nast": 3462,
      "thor": 3463,
      "fully": 3464,
      "shall": 3465,
      "##vert": 3466,
      "blond": 3467,
      "martin": 3468,
      "##cks": 3469,
      "ener": 3470,
      "serial": 3471,
      "##field": 3472,
      "sport": 3473,
      "univers": 3474,
      "mistake": 3475,
      "ju": 3476,
      "critics": 3477,
      "commercial": 3478,
      "bir": 3479,
      "surely": 3480,
      "grace": 3481,
      "##room": 3482,
      "##ability": 3483,
      "clean": 3484,
      "element": 3485,
      "##rey": 3486,
      "##icious": 3487,
      "aspects": 3488,
      "12": 3489,
      "moon": 3490,
      "tired": 3491,
      "expectations": 3492,
      "disappointment": 3493,
      "lived": 3494,
      "##ander": 3495,
      "mainly": 3496,
      "elect": 3497,
      "double": 3498,
      "developed": 3499,
      "fascinating": 3500,
      "trick": 3501,
      "sight": 3502,
      "discuss": 3503,
      "##vent": 3504,
      "##andon": 3505,
      "image": 3506,
      "mont": 3507,
      "worthy": 3508,
      "##bol": 3509,
      "##yl": 3510,
      "##ched": 3511,
      "chuck": 3512,
      "virt": 3513,
      "freak": 3514,
      "mild": 3515,
      "##hen": 3516,
      "##imp": 3517,
      "defe": 3518,
      "justice": 3519,
      "stewart": 3520,
      "##pher": 3521,
      "##ica": 3522,
      "dick": 3523,
      "hook": 3524,
      "rac": 3525,
      "ban": 3526,
      "jon": 3527,
      "##abb": 3528,
      "carl": 3529,
      "buff": 3530,
      "drawn": 3531,
      "##kin": 3532,
      "church": 3533,
      "subst": 3534,
      "##board": 3535,
      "disgust": 3536,
      "born": 3537,
      "bon": 3538,
      "summer": 3539,
      "ahead": 3540,
      "##arsh": 3541,
      "dread": 3542,
      "lover": 3543,
      "disaster": 3544,
      "melod": 3545,
      "holes": 3546,
      "##ploy": 3547,
      "opportunity": 3548,
      "##aven": 3549,
      "##ena": 3550,
      "stock": 3551,
      "conn": 3552,
      "content": 3553,
      "circ": 3554,
      "prim": 3555,
      "##oughly": 3556,
      "impl": 3557,
      "laughed": 3558,
      "christopher": 3559,
      "priv": 3560,
      "resem": 3561,
      "tour": 3562,
      "##entially": 3563,
      "##ruct": 3564,
      "shad": 3565,
      "faces": 3566,
      "subt": 3567,
      "folks": 3568,
      "confusing": 3569,
      "dreams": 3570,
      "students": 3571,
      "batman": 3572,
      "anth": 3573,
      "cloth": 3574,
      "finding": 3575,
      "qual": 3576,
      "robin": 3577,
      "location": 3578,
      "fif": 3579,
      "naz": 3580,
      "wide": 3581,
      "fright": 3582,
      "agent": 3583,
      "impact": 3584,
      "happening": 3585,
      "confused": 3586,
      "base": 3587,
      "max": 3588,
      "flicks": 3589,
      "dar": 3590,
      "board": 3591,
      "billy": 3592,
      "lam": 3593,
      "include": 3594,
      "##af": 3595,
      "held": 3596,
      "thom": 3597,
      "drugs": 3598,
      "gorge": 3599,
      "nons": 3600,
      "rh": 3601,
      "station": 3602,
      "ali": 3603,
      "dubb": 3604,
      "roy": 3605,
      "##con": 3606,
      "kelly": 3607,
      "marriage": 3608,
      "steven": 3609,
      "oppos": 3610,
      "answer": 3611,
      "cele": 3612,
      "twice": 3613,
      "carr": 3614,
      "40": 3615,
      "##onna": 3616,
      "irrit": 3617,
      "fortun": 3618,
      "##erm": 3619,
      "##iday": 3620,
      "mexic": 3621,
      "likable": 3622,
      "##edy": 3623,
      "horse": 3624,
      "americans": 3625,
      "compelling": 3626,
      "lyn": 3627,
      "blind": 3628,
      "##ples": 3629,
      "##ech": 3630,
      "ord": 3631,
      "resc": 3632,
      "listen": 3633,
      "dig": 3634,
      "putting": 3635,
      "difference": 3636,
      "occasion": 3637,
      "hat": 3638,
      "na": 3639,
      "##uous": 3640,
      "span": 3641,
      "traged": 3642,
      "relationships": 3643,
      "cliches": 3644,
      "symbol": 3645,
      "shakespe": 3646,
      "##mon": 3647,
      "brown": 3648,
      "highlight": 3649,
      "lord": 3650,
      "##unt": 3651,
      "##fted": 3652,
      "cops": 3653,
      "machine": 3654,
      "##inct": 3655,
      "scare": 3656,
      "ven": 3657,
      "weap": 3658,
      "supposedly": 3659,
      "sem": 3660,
      "seemingly": 3661,
      "falling": 3662,
      "lighting": 3663,
      "spectac": 3664,
      "core": 3665,
      "san": 3666,
      "plane": 3667,
      "multi": 3668,
      "##ste": 3669,
      "north": 3670,
      "lacks": 3671,
      "impressed": 3672,
      "ment": 3673,
      "##ledge": 3674,
      "actresses": 3675,
      "##ef": 3676,
      "##oes": 3677,
      "##bles": 3678,
      "##yc": 3679,
      "share": 3680,
      "trailer": 3681,
      "mob": 3682,
      "##table": 3683,
      "collection": 3684,
      "russian": 3685,
      "ms": 3686,
      "##aur": 3687,
      "env": 3688,
      "forgotten": 3689,
      "information": 3690,
      "ful": 3691,
      "paid": 3692,
      "soldier": 3693,
      "victims": 3694,
      "process": 3695,
      "rout": 3696,
      "wil": 3697,
      "creative": 3698,
      "helps": 3699,
      "lin": 3700,
      "##bc": 3701,
      "consist": 3702,
      "industry": 3703,
      "ugly": 3704,
      "canad": 3705,
      "artist": 3706,
      "market": 3707,
      "appeared": 3708,
      "adds": 3709,
      "funniest": 3710,
      "hotel": 3711,
      "professional": 3712,
      "negative": 3713,
      "jes": 3714,
      "disappe": 3715,
      "mut": 3716,
      "remote": 3717,
      "fellow": 3718,
      "##ued": 3719,
      "fault": 3720,
      "delivers": 3721,
      "suicide": 3722,
      "convers": 3723,
      "anymore": 3724,
      "creature": 3725,
      "gorgeous": 3726,
      "hide": 3727,
      "nick": 3728,
      "##mark": 3729,
      "adults": 3730,
      "captain": 3731,
      "wondering": 3732,
      "depart": 3733,
      "estab": 3734,
      "##gl": 3735,
      "therefore": 3736,
      "crash": 3737,
      "flaws": 3738,
      "frustr": 3739,
      "damn": 3740,
      "hasn": 3741,
      "explan": 3742,
      "progress": 3743,
      "latter": 3744,
      "##ras": 3745,
      "unkn": 3746,
      "ol": 3747,
      "##ked": 3748,
      "heaven": 3749,
      "##ribe": 3750,
      "unus": 3751,
      "phone": 3752,
      "melodram": 3753,
      "lets": 3754,
      "followed": 3755,
      "games": 3756,
      "##ession": 3757,
      "birth": 3758,
      "nin": 3759,
      "##rid": 3760,
      "seven": 3761,
      "prefer": 3762,
      "stuck": 3763,
      "uncle": 3764,
      "woods": 3765,
      "mediocre": 3766,
      "willing": 3767,
      "numbers": 3768,
      "aim": 3769,
      "offers": 3770,
      "jackson": 3771,
      "rented": 3772,
      "##aff": 3773,
      "bright": 3774,
      "reminded": 3775,
      "vs": 3776,
      "sea": 3777,
      "shouldn": 3778,
      "contem": 3779,
      "merely": 3780,
      "cgi": 3781,
      "allowed": 3782,
      "attractive": 3783,
      "fle": 3784,
      "##atter": 3785,
      "animals": 3786,
      "##een": 3787,
      "##uts": 3788,
      "scientist": 3789,
      "##ature": 3790,
      "ready": 3791,
      "shocking": 3792,
      "dirty": 3793,
      "queen": 3794,
      "jason": 3795,
      "##aries": 3796,
      "##icip": 3797,
      "unreal": 3798,
      "imagination": 3799,
      "celebr": 3800,
      "youth": 3801,
      "##ands": 3802,
      "area": 3803,
      "overl": 3804,
      "##ountain": 3805,
      "provides": 3806,
      "ice": 3807,
      "lay": 3808,
      "states": 3809,
      "tragic": 3810,
      "##ushed": 3811,
      "##ja": 3812,
      "thats": 3813,
      "##pping": 3814,
      "inspired": 3815,
      "card": 3816,
      "##ique": 3817,
      "##read": 3818,
      "unne": 3819,
      "display": 3820,
      "##text": 3821,
      "epic": 3822,
      "becoming": 3823,
      "shakespeare": 3824,
      "##ilities": 3825,
      "personality": 3826,
      "standards": 3827,
      "kiss": 3828,
      "quiet": 3829,
      "kidn": 3830,
      "##stein": 3831,
      "grow": 3832,
      "murders": 3833,
      "onto": 3834,
      "warning": 3835,
      "##aine": 3836,
      "grad": 3837,
      "turning": 3838,
      "wearing": 3839,
      "##soever": 3840,
      "seconds": 3841,
      "ford": 3842,
      "##orter": 3843,
      "##ita": 3844,
      "priest": 3845,
      "punch": 3846,
      "lies": 3847,
      "whatsoever": 3848,
      "acad": 3849,
      "devil": 3850,
      "protect": 3851,
      "crowd": 3852,
      "henry": 3853,
      "gent": 3854,
      "##aa": 3855,
      "##unny": 3856,
      "angry": 3857,
      "snow": 3858,
      "picked": 3859,
      "syn": 3860,
      "torture": 3861,
      "nasty": 3862,
      "##raid": 3863,
      "kevin": 3864,
      "formula": 3865,
      "wooden": 3866,
      "returns": 3867,
      "##ipped": 3868,
      "mcc": 3869,
      "##itor": 3870,
      "underst": 3871,
      "compare": 3872,
      "artistic": 3873,
      "lose": 3874,
      "zero": 3875,
      "##roc": 3876,
      "teacher": 3877,
      "##ini": 3878,
      "actions": 3879,
      "strength": 3880,
      "helped": 3881,
      "ryan": 3882,
      "tragedy": 3883,
      "bog": 3884,
      "##well": 3885,
      "childhood": 3886,
      "member": 3887,
      "knock": 3888,
      "commentary": 3889,
      "theatre": 3890,
      "##eper": 3891,
      "slap": 3892,
      "flying": 3893,
      "hill": 3894,
      "##entional": 3895,
      "thomas": 3896,
      "wars": 3897,
      "winning": 3898,
      "food": 3899,
      "##hs": 3900,
      "achieve": 3901,
      "sour": 3902,
      "religious": 3903,
      "thoroughly": 3904,
      "bell": 3905,
      "friendship": 3906,
      "cars": 3907,
      "cho": 3908,
      "scr": 3909,
      "accord": 3910,
      "lock": 3911,
      "mic": 3912,
      "moved": 3913,
      "##azz": 3914,
      "skin": 3915,
      "bank": 3916,
      "##illa": 3917,
      "interp": 3918,
      "proves": 3919,
      "teenage": 3920,
      "magnific": 3921,
      "##tend": 3922,
      "##pected": 3923,
      "bland": 3924,
      "afraid": 3925,
      "plots": 3926,
      "warm": 3927,
      "superior": 3928,
      "load": 3929,
      "##ris": 3930,
      "##oted": 3931,
      "sav": 3932,
      "##bb": 3933,
      "rose": 3934,
      "rape": 3935,
      "physical": 3936,
      "dun": 3937,
      "rul": 3938,
      "##agger": 3939,
      "page": 3940,
      "##lli": 3941,
      "vision": 3942,
      "deserved": 3943,
      "clothes": 3944,
      "mountain": 3945,
      "chas": 3946,
      "hack": 3947,
      "##azy": 3948,
      "apartment": 3949,
      "sis": 3950,
      "anne": 3951,
      "animal": 3952,
      "judge": 3953,
      "jerry": 3954,
      "arth": 3955,
      "continue": 3956,
      "dying": 3957,
      "stone": 3958,
      "realized": 3959,
      "unknown": 3960,
      "pra": 3961,
      "pleasure": 3962,
      "asked": 3963,
      "repeated": 3964,
      "##ano": 3965,
      "crack": 3966,
      "danny": 3967,
      "sucks": 3968,
      "ris": 3969,
      "thir": 3970,
      "##odies": 3971,
      "adam": 3972,
      "martial": 3973,
      "fal": 3974,
      "began": 3975,
      "wanting": 3976,
      "memory": 3977,
      "rubb": 3978,
      "##nie": 3979,
      "##und": 3980,
      "##urally": 3981,
      "##osh": 3982,
      "bits": 3983,
      "arts": 3984,
      "unexpected": 3985,
      "bath": 3986,
      "nic": 3987,
      "rus": 3988,
      "##hol": 3989,
      "provide": 3990,
      "000": 3991,
      "jr": 3992,
      "wel": 3993,
      "insight": 3994,
      "##lor": 3995,
      "##time": 3996,
      "brid": 3997,
      "anybody": 3998,
      "relative": 3999,
      "##inese": 4000,
      "court": 4001,
      "bloody": 4002,
      "favourite": 4003,
      "energy": 4004,
      "lew": 4005,
      "loving": 4006,
      "describe": 4007,
      "target": 4008,
      "mine": 4009,
      "mike": 4010,
      "##esty": 4011,
      "hund": 4012,
      "gam": 4013,
      "jenn": 4014,
      "rarely": 4015,
      "##asure": 4016,
      "brand": 4017,
      "chinese": 4018,
      "soap": 4019,
      "flow": 4020,
      "heroes": 4021,
      "introduced": 4022,
      "wat": 4023,
      "separ": 4024,
      "twenty": 4025,
      "president": 4026,
      "golden": 4027,
      "hidden": 4028,
      "80s": 4029,
      "##under": 4030,
      "watchable": 4031,
      "empt": 4032,
      "vol": 4033,
      "explos": 4034,
      "intelligence": 4035,
      "struggle": 4036,
      "employ": 4037,
      "independent": 4038,
      "dor": 4039,
      "anywhere": 4040,
      "sac": 4041,
      "perform": 4042,
      "johnny": 4043,
      "lone": 4044,
      "nomin": 4045,
      "thous": 4046,
      "doz": 4047,
      "##oses": 4048,
      "tears": 4049,
      "##port": 4050,
      "surreal": 4051,
      "brutal": 4052,
      "national": 4053,
      "wed": 4054,
      "dut": 4055,
      "##mes": 4056,
      "intriguing": 4057,
      "necessary": 4058,
      "##agers": 4059,
      "redeeming": 4060,
      "speed": 4061,
      "accom": 4062,
      "contrast": 4063,
      "occur": 4064,
      "williams": 4065,
      "dangerous": 4066,
      "##ators": 4067,
      "shop": 4068,
      "boat": 4069,
      "ner": 4070,
      "ton": 4071,
      "alt": 4072,
      "comedic": 4073,
      "fab": 4074,
      "##eman": 4075,
      "holds": 4076,
      "cook": 4077,
      "unw": 4078,
      "knowledge": 4079,
      "filmmaker": 4080,
      "60": 4081,
      "flesh": 4082,
      "mission": 4083,
      "##lla": 4084,
      "surprising": 4085,
      "dom": 4086,
      "##illing": 4087,
      "rese": 4088,
      "hyp": 4089,
      "##gory": 4090,
      "##rors": 4091,
      "##otes": 4092,
      "shir": 4093,
      "soph": 4094,
      "stink": 4095,
      "##oos": 4096,
      "buddy": 4097,
      "research": 4098,
      "##aire": 4099,
      "##ban": 4100,
      "brian": 4101,
      "player": 4102,
      "recall": 4103,
      "jose": 4104,
      "##father": 4105,
      "wonderfully": 4106,
      "transl": 4107,
      "deserve": 4108,
      "hundred": 4109,
      "##kward": 4110,
      "##ousy": 4111,
      "interact": 4112,
      "##pective": 4113,
      "belong": 4114,
      "moore": 4115,
      "calls": 4116,
      "deeply": 4117,
      "accurate": 4118,
      "hint": 4119,
      "##gs": 4120,
      "asks": 4121,
      "##apped": 4122,
      "heads": 4123,
      "river": 4124,
      "##ropriate": 4125,
      "##entious": 4126,
      "blame": 4127,
      "sant": 4128,
      "arthur": 4129,
      "understanding": 4130,
      "##ency": 4131,
      "monsters": 4132,
      "assist": 4133,
      "cass": 4134,
      "##hic": 4135,
      "seat": 4136,
      "somebody": 4137,
      "tend": 4138,
      "awkward": 4139,
      "reminds": 4140,
      "tight": 4141,
      "press": 4142,
      "unint": 4143,
      "nicely": 4144,
      "includes": 4145,
      "criminal": 4146,
      "establish": 4147,
      "lind": 4148,
      "price": 4149,
      "joan": 4150,
      "eddie": 4151,
      "explanation": 4152,
      "loss": 4153,
      "brook": 4154,
      "alan": 4155,
      "howard": 4156,
      "stephen": 4157,
      "issue": 4158,
      "##bi": 4159,
      "##orious": 4160,
      "allen": 4161,
      "limited": 4162,
      "guns": 4163,
      "fish": 4164,
      "tay": 4165,
      "insane": 4166,
      "robb": 4167,
      "unusual": 4168,
      "##house": 4169,
      "##ifer": 4170,
      "revolution": 4171,
      "paced": 4172,
      "enth": 4173,
      "tex": 4174,
      "apparent": 4175,
      "hated": 4176,
      "frame": 4177,
      "below": 4178,
      "pacing": 4179,
      "sir": 4180,
      "whil": 4181,
      "driving": 4182,
      "motiv": 4183,
      "gags": 4184,
      "cant": 4185,
      "smile": 4186,
      "officer": 4187,
      "##aton": 4188,
      "##urity": 4189,
      "educ": 4190,
      "leader": 4191,
      "purs": 4192,
      "remarkable": 4193,
      "lie": 4194,
      "virgin": 4195,
      "vhs": 4196,
      "lovers": 4197,
      "aust": 4198,
      "##ancy": 4199,
      "scared": 4200,
      "account": 4201,
      "powers": 4202,
      "singer": 4203,
      "ren": 4204,
      "noticed": 4205,
      "curious": 4206,
      "foreign": 4207,
      "pilot": 4208,
      "##ville": 4209,
      "bear": 4210,
      "memories": 4211,
      "whilst": 4212,
      "cab": 4213,
      "ly": 4214,
      "engaging": 4215,
      "constant": 4216,
      "70s": 4217,
      "domin": 4218,
      "##iding": 4219,
      "ens": 4220,
      "matth": 4221,
      "community": 4222,
      "opt": 4223,
      "unin": 4224,
      "pair": 4225,
      "locations": 4226,
      "signific": 4227,
      "desperate": 4228,
      "opposite": 4229,
      "wid": 4230,
      "##ls": 4231,
      "captured": 4232,
      "mental": 4233,
      "ow": 4234,
      "ron": 4235,
      "saving": 4236,
      "skip": 4237,
      "visit": 4238,
      "neighbor": 4239,
      "unnecessary": 4240,
      "##nam": 4241,
      "##iac": 4242,
      "##oke": 4243,
      "##rical": 4244,
      "##pper": 4245,
      "##bell": 4246,
      "references": 4247,
      "nonsense": 4248,
      "academy": 4249,
      "accompl": 4250,
      "vac": 4251,
      "##ii": 4252,
      "realism": 4253,
      "regret": 4254,
      "technical": 4255,
      "intellect": 4256,
      "freed": 4257,
      "cruel": 4258,
      "dimens": 4259,
      "fond": 4260,
      "##ium": 4261,
      "##ba": 4262,
      "##itz": 4263,
      "fate": 4264,
      "spin": 4265,
      "specif": 4266,
      "proceed": 4267,
      "creating": 4268,
      "interpret": 4269,
      "jan": 4270,
      "reflect": 4271,
      "learned": 4272,
      "##nia": 4273,
      "humans": 4274,
      "floor": 4275,
      "months": 4276,
      "ordinary": 4277,
      "belief": 4278,
      "morning": 4279,
      "lynch": 4280,
      "eric": 4281,
      "sed": 4282,
      "##herent": 4283,
      "starting": 4284,
      "subtit": 4285,
      "peace": 4286,
      "grat": 4287,
      "##ivity": 4288,
      "responsible": 4289,
      "##eness": 4290,
      "growing": 4291,
      "contri": 4292,
      "humanity": 4293,
      "model": 4294,
      "junk": 4295,
      "##atory": 4296,
      "##aph": 4297,
      "finished": 4298,
      "assass": 4299,
      "fights": 4300,
      "generation": 4301,
      "mrs": 4302,
      "according": 4303,
      "##ners": 4304,
      "sky": 4305,
      "skill": 4306,
      "lesb": 4307,
      "taylor": 4308,
      "paper": 4309,
      "rub": 4310,
      "##oom": 4311,
      "##anced": 4312,
      "dressed": 4313,
      "window": 4314,
      "normally": 4315,
      "rubbish": 4316,
      "manage": 4317,
      "players": 4318,
      "minim": 4319,
      "keeping": 4320,
      "lacking": 4321,
      "bow": 4322,
      "beach": 4323,
      "stret": 4324,
      "##che": 4325,
      "cali": 4326,
      "ros": 4327,
      "##xual": 4328,
      "cate": 4329,
      "##ront": 4330,
      "##elle": 4331,
      "england": 4332,
      "treated": 4333,
      "explained": 4334,
      "hay": 4335,
      "earn": 4336,
      "fer": 4337,
      "gal": 4338,
      "##lock": 4339,
      "##soci": 4340,
      "resol": 4341,
      "heroine": 4342,
      "eating": 4343,
      "goof": 4344,
      "##win": 4345,
      "##yer": 4346,
      "##ante": 4347,
      "##ipul": 4348,
      "incre": 4349,
      "##ographer": 4350,
      "behavior": 4351,
      "magnificent": 4352,
      "lewis": 4353,
      "spoof": 4354,
      "represent": 4355,
      "cable": 4356,
      "gary": 4357,
      "partner": 4358,
      "broken": 4359,
      "current": 4360,
      "hits": 4361,
      "rod": 4362,
      "sean": 4363,
      "hadn": 4364,
      "originally": 4365,
      "##ruction": 4366,
      "media": 4367,
      "survive": 4368,
      "cash": 4369,
      "##bled": 4370,
      "comparison": 4371,
      "##ker": 4372,
      "werew": 4373,
      "connection": 4374,
      "gas": 4375,
      "##oons": 4376,
      "contrib": 4377,
      "columb": 4378,
      "sword": 4379,
      "naturally": 4380,
      "davis": 4381,
      "uncon": 4382,
      "louis": 4383,
      "tape": 4384,
      "witty": 4385,
      "dism": 4386,
      "vehic": 4387,
      "struct": 4388,
      "bigger": 4389,
      "mixed": 4390,
      "occasionally": 4391,
      "25": 4392,
      "coo": 4393,
      "ward": 4394,
      "princi": 4395,
      "bag": 4396,
      "eth": 4397,
      "##nat": 4398,
      "##arded": 4399,
      "aware": 4400,
      "simpl": 4401,
      "cuts": 4402,
      "##ained": 4403,
      "##asts": 4404,
      "text": 4405,
      "murdered": 4406,
      "dealing": 4407,
      "##olds": 4408,
      "efforts": 4409,
      "philos": 4410,
      "gig": 4411,
      "tick": 4412,
      "##stick": 4413,
      "haw": 4414,
      "desire": 4415,
      "castle": 4416,
      "capture": 4417,
      "##cise": 4418,
      "guest": 4419,
      "spanish": 4420,
      "loy": 4421,
      "##iven": 4422,
      "forces": 4423,
      "atroc": 4424,
      "prove": 4425,
      "##war": 4426,
      "##icate": 4427,
      "associ": 4428,
      "cris": 4429,
      "##pless": 4430,
      "crappy": 4431,
      "included": 4432,
      "pupp": 4433,
      "european": 4434,
      "jennifer": 4435,
      "mitch": 4436,
      "wayne": 4437,
      "mini": 4438,
      "villains": 4439,
      "candy": 4440,
      "gotten": 4441,
      "numerous": 4442,
      "debut": 4443,
      "challeng": 4444,
      "protagonist": 4445,
      "##ping": 4446,
      "##ading": 4447,
      "chan": 4448,
      "intent": 4449,
      "steal": 4450,
      "experien": 4451,
      "determ": 4452,
      "finest": 4453,
      "instance": 4454,
      "glass": 4455,
      "advice": 4456,
      "circum": 4457,
      "improv": 4458,
      "veter": 4459,
      "empty": 4460,
      "screw": 4461,
      "pretentious": 4462,
      "frequ": 4463,
      "reaction": 4464,
      "sharp": 4465,
      "##mare": 4466,
      "##cul": 4467,
      "safe": 4468,
      "trib": 4469,
      "humorous": 4470,
      "luc": 4471,
      "private": 4472,
      "andrew": 4473,
      "context": 4474,
      "encounter": 4475,
      "##abor": 4476,
      "speech": 4477,
      "edited": 4478,
      "barry": 4479,
      "batt": 4480,
      "trek": 4481,
      "envir": 4482,
      "##rous": 4483,
      "whenever": 4484,
      "iron": 4485,
      "##val": 4486,
      "chore": 4487,
      "owner": 4488,
      "print": 4489,
      "deals": 4490,
      "incomp": 4491,
      "daniel": 4492,
      "revealed": 4493,
      "cyn": 4494,
      "kinda": 4495,
      "##ashing": 4496,
      "##sem": 4497,
      "terribly": 4498,
      "hopes": 4499,
      "frankly": 4500,
      "lucky": 4501,
      "discovered": 4502,
      "essentially": 4503,
      "stereotypes": 4504,
      "fame": 4505,
      "jung": 4506,
      "##lled": 4507,
      "finale": 4508,
      "regular": 4509,
      "village": 4510,
      "psycho": 4511,
      "hunter": 4512,
      "irritating": 4513,
      "##hern": 4514,
      "##aker": 4515,
      "strang": 4516,
      "pulled": 4517,
      "gard": 4518,
      "##iling": 4519,
      "jam": 4520,
      "toward": 4521,
      "abandon": 4522,
      "marvel": 4523,
      "france": 4524,
      "truck": 4525,
      "psychological": 4526,
      "international": 4527,
      "concerned": 4528,
      "wound": 4529,
      "##ga": 4530,
      "##bling": 4531,
      "##iser": 4532,
      "higher": 4533,
      "relate": 4534,
      "meanwhile": 4535,
      "featuring": 4536,
      "teenagers": 4537,
      "anthony": 4538,
      "ske": 4539,
      "##de": 4540,
      "##zan": 4541,
      "feet": 4542,
      "nightmare": 4543,
      "results": 4544,
      "texas": 4545,
      "environ": 4546,
      "bound": 4547,
      "fet": 4548,
      "kur": 4549,
      "organ": 4550,
      "wrest": 4551,
      "streets": 4552,
      "row": 4553,
      "manipul": 4554,
      "##ails": 4555,
      "corrupt": 4556,
      "center": 4557,
      "hallow": 4558,
      "vul": 4559,
      "##uel": 4560,
      "##rays": 4561,
      "andy": 4562,
      "matt": 4563,
      "talents": 4564,
      "liber": 4565,
      "dimensional": 4566,
      "circumst": 4567,
      "sid": 4568,
      "##down": 4569,
      "sheer": 4570,
      "saved": 4571,
      "##ipping": 4572,
      "received": 4573,
      "##stre": 4574,
      "altern": 4575,
      "gross": 4576,
      "skills": 4577,
      "remembered": 4578,
      "football": 4579,
      "african": 4580,
      "##ested": 4581,
      "attitude": 4582,
      "nich": 4583,
      "heck": 4584,
      "grown": 4585,
      "miser": 4586,
      "parody": 4587,
      "unfunny": 4588,
      "study": 4589,
      "sucked": 4590,
      "dated": 4591,
      "##imental": 4592,
      "comfort": 4593,
      "##ques": 4594,
      "gene": 4595,
      "report": 4596,
      "bird": 4597,
      "hart": 4598,
      "range": 4599,
      "##iving": 4600,
      "buck": 4601,
      "genuinely": 4602,
      "aliens": 4603,
      "freedom": 4604,
      "sab": 4605,
      "viet": 4606,
      "##cher": 4607,
      "kenn": 4608,
      "##cies": 4609,
      "incident": 4610,
      "levels": 4611,
      "miles": 4612,
      "contempor": 4613,
      "hood": 4614,
      "uk": 4615,
      "##mary": 4616,
      "deg": 4617,
      "wealth": 4618,
      "consequ": 4619,
      "gangster": 4620,
      "jimmy": 4621,
      "vote": 4622,
      "disp": 4623,
      "##rifying": 4624,
      "screaming": 4625,
      "gory": 4626,
      "hung": 4627,
      "site": 4628,
      "charism": 4629,
      "pin": 4630,
      "chief": 4631,
      "visuals": 4632,
      "julie": 4633,
      "sheriff": 4634,
      "spectacular": 4635,
      "jess": 4636,
      "##ario": 4637,
      "##anic": 4638,
      "leon": 4639,
      "quir": 4640,
      "marry": 4641,
      "failure": 4642,
      "satire": 4643,
      "wra": 4644,
      "lesson": 4645,
      "cameo": 4646,
      "##anned": 4647,
      "dougl": 4648,
      "dreadful": 4649,
      "unable": 4650,
      "blow": 4651,
      "decade": 4652,
      "classics": 4653,
      "morgan": 4654,
      "reviewers": 4655,
      "shallow": 4656,
      "##ements": 4657,
      "evidence": 4658,
      "ladies": 4659,
      "##natural": 4660,
      "##iles": 4661,
      "imagin": 4662,
      "corny": 4663,
      "satur": 4664,
      "continues": 4665,
      "existence": 4666,
      "wedding": 4667,
      "##eg": 4668,
      "##ss": 4669,
      "asian": 4670,
      "##ennis": 4671,
      "breaks": 4672,
      "naive": 4673,
      "unrealistic": 4674,
      "halloween": 4675,
      "##vit": 4676,
      "##ication": 4677,
      "washing": 4678,
      "colour": 4679,
      "cath": 4680,
      "native": 4681,
      "##oooo": 4682,
      "conce": 4683,
      "##cient": 4684,
      "relief": 4685,
      "opens": 4686,
      "cliched": 4687,
      "flashbacks": 4688,
      "described": 4689,
      "philosoph": 4690,
      "##sen": 4691,
      "inh": 4692,
      "##abeth": 4693,
      "overly": 4694,
      "famil": 4695,
      "decision": 4696,
      "franc": 4697,
      "australian": 4698,
      "gord": 4699,
      "##ym": 4700,
      "##sell": 4701,
      "ultimate": 4702,
      "identity": 4703,
      "tack": 4704,
      "##laim": 4705,
      "sund": 4706,
      "emer": 4707,
      "obsc": 4708,
      "creatures": 4709,
      "logic": 4710,
      "douglas": 4711,
      "albert": 4712,
      "agre": 4713,
      "extraord": 4714,
      "rot": 4715,
      "##rant": 4716,
      "##cra": 4717,
      "##iled": 4718,
      "shut": 4719,
      "alice": 4720,
      "##athan": 4721,
      "distract": 4722,
      "switch": 4723,
      "vampires": 4724,
      "##oring": 4725,
      "##ulous": 4726,
      "demonstr": 4727,
      "service": 4728,
      "##awn": 4729,
      "##kins": 4730,
      "obl": 4731,
      "perspective": 4732,
      "barbara": 4733,
      "tiny": 4734,
      "wolf": 4735,
      "seag": 4736,
      "##uls": 4737,
      "standing": 4738,
      "driven": 4739,
      "contrived": 4740,
      "rick": 4741,
      "prost": 4742,
      "sisters": 4743,
      "tap": 4744,
      "##aint": 4745,
      "carp": 4746,
      "keaton": 4747,
      "provided": 4748,
      "discovers": 4749,
      "hitler": 4750,
      "counter": 4751,
      "ruth": 4752,
      "teenager": 4753,
      "tedious": 4754,
      "graphic": 4755,
      "jesus": 4756,
      "bbc": 4757,
      "kim": 4758,
      "##anks": 4759,
      "sake": 4760,
      "command": 4761,
      "visually": 4762,
      "types": 4763,
      "delivered": 4764,
      "##writer": 4765,
      "dry": 4766,
      "enemy": 4767,
      "laughter": 4768,
      "built": 4769,
      "delightful": 4770,
      "traditional": 4771,
      "##nda": 4772,
      "choose": 4773,
      "cares": 4774,
      "grew": 4775,
      "propag": 4776,
      "16": 4777,
      "tas": 4778,
      "eliz": 4779,
      "breaking": 4780,
      "suffering": 4781,
      "rescue": 4782,
      "lesbian": 4783,
      "gonna": 4784,
      "##za": 4785,
      "shel": 4786,
      "brilliantly": 4787,
      "##opped": 4788,
      "lau": 4789,
      "pity": 4790,
      "rise": 4791,
      "send": 4792,
      "intention": 4793,
      "endless": 4794,
      "creates": 4795,
      "involves": 4796,
      "admir": 4797,
      "bodies": 4798,
      "##ushing": 4799,
      "myth": 4800,
      "trav": 4801,
      "talks": 4802,
      "driver": 4803,
      "erotic": 4804,
      "photograph": 4805,
      "inex": 4806,
      "meeting": 4807,
      "handsome": 4808,
      "combination": 4809,
      "executed": 4810,
      "chaplin": 4811,
      "14": 4812,
      "underrated": 4813,
      "ages": 4814,
      "minds": 4815,
      "bringing": 4816,
      "theaters": 4817,
      "emotionally": 4818,
      "##dom": 4819,
      "##isa": 4820,
      "##asm": 4821,
      "compan": 4822,
      "promise": 4823,
      "expression": 4824,
      "brad": 4825,
      "##ama": 4826,
      "##iro": 4827,
      "advert": 4828,
      "anna": 4829,
      "uncom": 4830,
      "sympathetic": 4831,
      "network": 4832,
      "rules": 4833,
      "cit": 4834,
      "nav": 4835,
      "asking": 4836,
      "guard": 4837,
      "reviewer": 4838,
      "capable": 4839,
      "disgusting": 4840,
      "dubbed": 4841,
      "families": 4842,
      "kong": 4843,
      "##ube": 4844,
      "##teen": 4845,
      "provo": 4846,
      "inspir": 4847,
      "amateurish": 4848,
      "table": 4849,
      "##hh": 4850,
      "##itter": 4851,
      "brave": 4852,
      "##icit": 4853,
      "necess": 4854,
      "evening": 4855,
      "hearted": 4856,
      "loses": 4857,
      "environment": 4858,
      "##atra": 4859,
      "anton": 4860,
      "##esting": 4861,
      "##bid": 4862,
      "allows": 4863,
      "##ument": 4864,
      "aged": 4865,
      "fict": 4866,
      "##aded": 4867,
      "proved": 4868,
      "larry": 4869,
      "authent": 4870,
      "assume": 4871,
      "blonde": 4872,
      "gordon": 4873,
      "boot": 4874,
      "meth": 4875,
      "##uther": 4876,
      "prince": 4877,
      "seagal": 4878,
      "lor": 4879,
      "mum": 4880,
      "##ilog": 4881,
      "##aming": 4882,
      "accomp": 4883,
      "sitcom": 4884,
      "roman": 4885,
      "harm": 4886,
      "haunting": 4887,
      "##theless": 4888,
      "sole": 4889,
      "##osexual": 4890,
      "believes": 4891,
      "facts": 4892,
      "gratuit": 4893,
      "dyn": 4894,
      "nevertheless": 4895,
      "subpl": 4896,
      "hunt": 4897,
      "universal": 4898,
      "kate": 4899,
      "sen": 4900,
      "##othy": 4901,
      "viewed": 4902,
      "hopefully": 4903,
      "controvers": 4904,
      "costs": 4905,
      "dogs": 4906,
      "silver": 4907,
      "dollars": 4908,
      "blockb": 4909,
      "inj": 4910,
      "##usi": 4911,
      "##osen": 4912,
      "unfor": 4913,
      "##anged": 4914,
      "shocked": 4915,
      "treatment": 4916,
      "fare": 4917,
      "harsh": 4918,
      "pitch": 4919,
      "ancient": 4920,
      "invent": 4921,
      "robot": 4922,
      "majority": 4923,
      "inept": 4924,
      "cage": 4925,
      "proud": 4926,
      "united": 4927,
      "rental": 4928,
      "religion": 4929,
      "##ients": 4930,
      "stol": 4931,
      "maint": 4932,
      "letter": 4933,
      "jackie": 4934,
      "##levant": 4935,
      "embarrassing": 4936,
      "shark": 4937,
      "spark": 4938,
      "sequels": 4939,
      "strongly": 4940,
      "pleasant": 4941,
      "link": 4942,
      "##night": 4943,
      "prior": 4944,
      "teens": 4945,
      "steals": 4946,
      "portrays": 4947,
      "refres": 4948,
      "purch": 4949,
      "germany": 4950,
      "shadow": 4951,
      "jun": 4952,
      "lion": 4953,
      "lousy": 4954,
      "rough": 4955,
      "till": 4956,
      "##bur": 4957,
      "horribly": 4958,
      "winner": 4959,
      "dinos": 4960,
      "exploitation": 4961,
      "nominated": 4962,
      "citiz": 4963,
      "##lo": 4964,
      "compos": 4965,
      "thoughts": 4966,
      "##gged": 4967,
      "theatrical": 4968,
      "caused": 4969,
      "nur": 4970,
      "excited": 4971,
      "aid": 4972,
      "revel": 4973,
      "chosen": 4974,
      "##usive": 4975,
      "ende": 4976,
      "circumstances": 4977,
      "eld": 4978,
      "##tes": 4979,
      "forth": 4980,
      "scale": 4981,
      "ade": 4982,
      "preach": 4983,
      "factor": 4984,
      "##ashed": 4985,
      "matters": 4986,
      "walked": 4987,
      "doom": 4988,
      "kir": 4989,
      "vinc": 4990,
      "anderson": 4991,
      "awards": 4992,
      "swim": 4993,
      "twisted": 4994,
      "mask": 4995,
      "authentic": 4996,
      "raw": 4997,
      "stalk": 4998,
      "expert": 4999
    }
  }
}